{
  "version": "1.0",
  "truncation": null,
  "padding": null,
  "added_tokens": [
    {
      "id": 0,
      "content": "<s>",
      "single_word": false,
      "lstrip": false,
      "rstrip": false,
      "normalized": false,
      "special": true
    },
    {
      "id": 1,
      "content": "<pad>",
      "single_word": false,
      "lstrip": false,
      "rstrip": false,
      "normalized": false,
      "special": true
    },
    {
      "id": 2,
      "content": "</s>",
      "single_word": false,
      "lstrip": false,
      "rstrip": false,
      "normalized": false,
      "special": true
    },
    {
      "id": 3,
      "content": "<unk>",
      "single_word": false,
      "lstrip": false,
      "rstrip": false,
      "normalized": false,
      "special": true
    },
    {
      "id": 4,
      "content": "<mask>",
      "single_word": false,
      "lstrip": false,
      "rstrip": false,
      "normalized": false,
      "special": true
    }
  ],
  "normalizer": null,
  "pre_tokenizer": {
    "type": "ByteLevel",
    "add_prefix_space": false,
    "trim_offsets": true,
    "use_regex": true
  },
  "post_processor": {
    "type": "TemplateProcessing",
    "single": [
      {
        "SpecialToken": {
          "id": "<s>",
          "type_id": 0
        }
      },
      {
        "Sequence": {
          "id": "A",
          "type_id": 0
        }
      },
      {
        "SpecialToken": {
          "id": "</s>",
          "type_id": 0
        }
      }
    ],
    "pair": [
      {
        "Sequence": {
          "id": "A",
          "type_id": 0
        }
      },
      {
        "Sequence": {
          "id": "B",
          "type_id": 1
        }
      }
    ],
    "special_tokens": {
      "</s>": {
        "id": "</s>",
        "ids": [
          2
        ],
        "tokens": [
          "</s>"
        ]
      },
      "<s>": {
        "id": "<s>",
        "ids": [
          0
        ],
        "tokens": [
          "<s>"
        ]
      }
    }
  },
  "decoder": {
    "type": "ByteLevel",
    "add_prefix_space": true,
    "trim_offsets": true,
    "use_regex": true
  },
  "model": {
    "type": "BPE",
    "dropout": null,
    "unk_token": null,
    "continuing_subword_prefix": null,
    "end_of_word_suffix": null,
    "fuse_unk": false,
    "byte_fallback": false,
    "ignore_merges": false,
    "vocab": {
      "<s>": 0,
      "<pad>": 1,
      "</s>": 2,
      "<unk>": 3,
      "<mask>": 4,
      "!": 5,
      "\"": 6,
      "#": 7,
      "$": 8,
      "%": 9,
      "&": 10,
      "'": 11,
      "(": 12,
      ")": 13,
      "*": 14,
      "+": 15,
      ",": 16,
      "-": 17,
      ".": 18,
      "/": 19,
      "0": 20,
      "1": 21,
      "2": 22,
      "3": 23,
      "4": 24,
      "5": 25,
      "6": 26,
      "7": 27,
      "8": 28,
      "9": 29,
      ":": 30,
      ";": 31,
      "<": 32,
      "=": 33,
      ">": 34,
      "?": 35,
      "@": 36,
      "A": 37,
      "B": 38,
      "C": 39,
      "D": 40,
      "E": 41,
      "F": 42,
      "G": 43,
      "H": 44,
      "I": 45,
      "J": 46,
      "K": 47,
      "L": 48,
      "M": 49,
      "N": 50,
      "O": 51,
      "P": 52,
      "Q": 53,
      "R": 54,
      "S": 55,
      "T": 56,
      "U": 57,
      "V": 58,
      "W": 59,
      "X": 60,
      "Y": 61,
      "Z": 62,
      "[": 63,
      "\\": 64,
      "]": 65,
      "^": 66,
      "_": 67,
      "`": 68,
      "a": 69,
      "b": 70,
      "c": 71,
      "d": 72,
      "e": 73,
      "f": 74,
      "g": 75,
      "h": 76,
      "i": 77,
      "j": 78,
      "k": 79,
      "l": 80,
      "m": 81,
      "n": 82,
      "o": 83,
      "p": 84,
      "q": 85,
      "r": 86,
      "s": 87,
      "t": 88,
      "u": 89,
      "v": 90,
      "w": 91,
      "x": 92,
      "y": 93,
      "z": 94,
      "{": 95,
      "|": 96,
      "}": 97,
      "~": 98,
      "¡": 99,
      "¢": 100,
      "£": 101,
      "¤": 102,
      "¥": 103,
      "¦": 104,
      "§": 105,
      "¨": 106,
      "©": 107,
      "ª": 108,
      "«": 109,
      "¬": 110,
      "®": 111,
      "¯": 112,
      "°": 113,
      "±": 114,
      "²": 115,
      "³": 116,
      "´": 117,
      "µ": 118,
      "¶": 119,
      "·": 120,
      "¸": 121,
      "¹": 122,
      "º": 123,
      "»": 124,
      "¼": 125,
      "½": 126,
      "¾": 127,
      "¿": 128,
      "À": 129,
      "Á": 130,
      "Â": 131,
      "Ã": 132,
      "Ä": 133,
      "Å": 134,
      "Æ": 135,
      "Ç": 136,
      "È": 137,
      "É": 138,
      "Ê": 139,
      "Ë": 140,
      "Ì": 141,
      "Í": 142,
      "Î": 143,
      "Ï": 144,
      "Ð": 145,
      "Ñ": 146,
      "Ò": 147,
      "Ó": 148,
      "Ô": 149,
      "Õ": 150,
      "Ö": 151,
      "×": 152,
      "Ø": 153,
      "Ù": 154,
      "Ú": 155,
      "Û": 156,
      "Ü": 157,
      "Ý": 158,
      "Þ": 159,
      "ß": 160,
      "à": 161,
      "á": 162,
      "â": 163,
      "ã": 164,
      "ä": 165,
      "å": 166,
      "æ": 167,
      "ç": 168,
      "è": 169,
      "é": 170,
      "ê": 171,
      "ë": 172,
      "ì": 173,
      "í": 174,
      "î": 175,
      "ï": 176,
      "ð": 177,
      "ñ": 178,
      "ò": 179,
      "ó": 180,
      "ô": 181,
      "õ": 182,
      "ö": 183,
      "÷": 184,
      "ø": 185,
      "ù": 186,
      "ú": 187,
      "û": 188,
      "ü": 189,
      "ý": 190,
      "þ": 191,
      "ÿ": 192,
      "Ā": 193,
      "ā": 194,
      "Ă": 195,
      "ă": 196,
      "Ą": 197,
      "ą": 198,
      "Ć": 199,
      "ć": 200,
      "Ĉ": 201,
      "ĉ": 202,
      "Ċ": 203,
      "ċ": 204,
      "Č": 205,
      "č": 206,
      "Ď": 207,
      "ď": 208,
      "Đ": 209,
      "đ": 210,
      "Ē": 211,
      "ē": 212,
      "Ĕ": 213,
      "ĕ": 214,
      "Ė": 215,
      "ė": 216,
      "Ę": 217,
      "ę": 218,
      "Ě": 219,
      "ě": 220,
      "Ĝ": 221,
      "ĝ": 222,
      "Ğ": 223,
      "ğ": 224,
      "Ġ": 225,
      "ġ": 226,
      "Ģ": 227,
      "ģ": 228,
      "Ĥ": 229,
      "ĥ": 230,
      "Ħ": 231,
      "ħ": 232,
      "Ĩ": 233,
      "ĩ": 234,
      "Ī": 235,
      "ī": 236,
      "Ĭ": 237,
      "ĭ": 238,
      "Į": 239,
      "į": 240,
      "İ": 241,
      "ı": 242,
      "Ĳ": 243,
      "ĳ": 244,
      "Ĵ": 245,
      "ĵ": 246,
      "Ķ": 247,
      "ķ": 248,
      "ĸ": 249,
      "Ĺ": 250,
      "ĺ": 251,
      "Ļ": 252,
      "ļ": 253,
      "Ľ": 254,
      "ľ": 255,
      "Ŀ": 256,
      "ŀ": 257,
      "Ł": 258,
      "ł": 259,
      "Ń": 260,
      "ãģ": 261,
      "ãĤ": 262,
      "ãĢ": 263,
      "ãģ®": 264,
      "ãĢģ": 265,
      "ãģĦ": 266,
      "ãģŁ": 267,
      "ãĢĤ": 268,
      "ãģ¦": 269,
      "ãģ«": 270,
      "ãģĹ": 271,
      "ãģ¯": 272,
      "ãģª": 273,
      "ãģ¨": 274,
      "ãĤĭ": 275,
      "ãĤĴ": 276,
      "ãģ£": 277,
      "ãģĭ": 278,
      "ãģ§": 279,
      "ãģĮ": 280,
      "äº": 281,
      "ä¸": 282,
      "ãĤī": 283,
      "ãĤĤ": 284,
      "ãģĨ": 285,
      "ãĤĮ": 286,
      "ãģ¾": 287,
      "ãģĤ": 288,
      "ãĤĵ": 289,
      "ãģł": 290,
      "ãĥ": 291,
      "ãģĿ": 292,
      "ãĤĬ": 293,
      "ãģı": 294,
      "ãģĻ": 295,
      "ãģ£ãģ¦": 296,
      "ãģĵ": 297,
      "ãģ£ãģŁ": 298,
      "ãģ®å": 299,
      "ãģĹãģ¦": 300,
      "ãģĹãģŁ": 301,
      "ãĢĮ": 302,
      "ãĢį": 303,
      "ãģ®æ": 304,
      "ãģĭãĤī": 305,
      "ãģķ": 306,
      "ãģªãģĦ": 307,
      "ä»": 308,
      "åħ": 309,
      "åĲ": 310,
      "ãģ¤": 311,
      "äºº": 312,
      "ãĤĪ": 313,
      "çĶ": 314,
      "ãģĪ": 315,
      "å¤": 316,
      "è¦": 317,
      "åĪ": 318,
      "ãģĳ": 319,
      "ãģį": 320,
      "ãģĤãĤĭ": 321,
      "ä½": 322,
      "æĿ": 323,
      "åı": 324,
      "ãģ©": 325,
      "ç§": 326,
      "ä¸Ģ": 327,
      "åĩ": 328,
      "å®": 329,
      "äºĭ": 330,
      "æľ": 331,
      "è¦ĭ": 332,
      "åĩº": 333,
      "ãģĦãģŁ": 334,
      "ãģ®é": 335,
      "ãģĬ": 336,
      "å¾": 337,
      "ç§ģ": 338,
      "ãģ®ãģ§": 339,
      "ãģ¸": 340,
      "ãģ¡": 341,
      "æĸ": 342,
      "ãĤĦ": 343,
      "åŃ": 344,
      "ãĤĴæ": 345,
      "ãģĽ": 346,
      "ãģ®è": 347,
      "ãģĦãĤĭ": 348,
      "ãģ®ç": 349,
      "ãĤį": 350,
      "æĿ¥": 351,
      "åį": 352,
      "ãĤģ": 353,
      "éģ": 354,
      "æī": 355,
      "ãĤı": 356,
      "æ°": 357,
      "æĢ": 358,
      "äºĳ": 359,
      "ãģĻãĤĭ": 360,
      "åĪĨ": 361,
      "è¡": 362,
      "ãģ°": 363,
      "ãģĿãĤĮ": 364,
      "å°": 365,
      "ãģ¾ãģĹãģŁ": 366,
      "å¥": 367,
      "èĩ": 368,
      "ĻĤ": 369,
      "ãģĦãģ¦": 370,
      "ãģĺ": 371,
      "éĸ": 372,
      "éĢ": 373,
      "ãģ®ä¸": 374,
      "åĽ": 375,
      "æĹ": 376,
      "ä½ķ": 377,
      "æŃ": 378,
      "å¿": 379,
      "ãĤĪãģĨ": 380,
      "å¹": 381,
      "å½": 382,
      "ãĤĵãģ§": 383,
      "çĶŁ": 384,
      "å±": 385,
      "ãģ«ãģ¯": 386,
      "ä¸ī": 387,
      "äºĮ": 388,
      "ãĤĴè": 389,
      "å¯": 390,
      "ãģļ": 391,
      "ãģ«ãģª": 392,
      "çĽ": 393,
      "ãģ¨ãģĦ": 394,
      "ãģ«æ": 395,
      "ãģķãĤĵ": 396,
      "åº": 397,
      "æĢĿ": 398,
      "ãĤĤãģ®": 399,
      "èĩª": 400,
      "æ°Ĺ": 401,
      "å¤§": 402,
      "åŃĲ": 403,
      "è¡Į": 404,
      "ãģŃ": 405,
      "æĻĤ": 406,
      "å¸": 407,
      "ãģĿãģĨ": 408,
      "ãģĭãģ£ãģŁ": 409,
      "ãĤĥ": 410,
      "éĥ": 411,
      "ãģ«è": 412,
      "çĦ": 413,
      "éĩ": 414,
      "ãĤĵãģł": 415,
      "ãģ§ãģĤãĤĭ": 416,
      "âĢ": 417,
      "å¼": 418,
      "ãģ¿": 419,
      "ãĤĴç": 420,
      "åįģ": 421,
      "è¨": 422,
      "èĢ": 423,
      "æĹ¥": 424,
      "ãģĵãģ¨": 425,
      "åĬ": 426,
      "åĲĽ": 427,
      "ãĤĵãģª": 428,
      "ãģ¨äºĳ": 429,
      "ãģ§ãĤĤ": 430,
      "ç§ģãģ¯": 431,
      "è¿": 432,
      "éĿ": 433,
      "æĪ": 434,
      "æĺ": 435,
      "çĻ": 436,
      "èª": 437,
      "çŁ": 438,
      "ãģĤãģ£ãģŁ": 439,
      "ãĤĮãģŁ": 440,
      "§ĺ": 441,
      "éĸĵ": 442,
      "åĳ": 443,
      "åĭ": 444,
      "ä»£": 445,
      "ä¸Ĭ": 446,
      "ãĤĭãģ¨": 447,
      "ãĤĮãģ¦": 448,
      "īį": 449,
      "ãģªãģĭãģ£ãģŁ": 450,
      "ãģ¨ãģĦãģĨ": 451,
      "ãģ«ç": 452,
      "å·": 453,
      "ä»Ĭ": 454,
      "éł": 455,
      "ãĢħ": 456,
      "èĩªåĪĨ": 457,
      "åħĪ": 458,
      "æķ": 459,
      "ģŀ": 460,
      "ãĤįãģĨ": 461,
      "ä¿": 462,
      "æīĭ": 463,
      "çī": 464,
      "ä¼": 465,
      "ãģĹãģĦ": 466,
      "ãģ§ãģĻ": 467,
      "ï¼": 468,
      "ãģªãģı": 469,
      "ãģĵãĤĮ": 470,
      "æĦ": 471,
      "é£": 472,
      "éĽ": 473,
      "ãģ¾ãģĻ": 474,
      "åĽĽ": 475,
      "éĥİ": 476,
      "ä¸ĭ": 477,
      "ãģ®ãģ§ãģĻ": 478,
      "ãģ©ãģĨ": 479,
      "æĸ¹": 480,
      "«ĭ": 481,
      "ãĥ³": 482,
      "å¹´": 483,
      "é¡": 484,
      "ãģ®ãģł": 485,
      "æīĢ": 486,
      "æĬ": 487,
      "æ§ĺ": 488,
      "çľ": 489,
      "ãĤĩ": 490,
      "ä¹": 491,
      "å½¼": 492,
      "ç´": 493,
      "å¿ĥ": 494,
      "åĥ": 495,
      "äºĶ": 496,
      "ãģ§ãģ¯": 497,
      "ãģ¾ãģĽ": 498,
      "ãģ¬": 499,
      "ãģ£ãģ¨": 500,
      "éĻ": 501,
      "ãģ®ãģ¯": 502,
      "çµ": 503,
      "çŁ¥": 504,
      "åīį": 505,
      "ãĤĴè¦ĭ": 506,
      "å¾¡": 507,
      "çŃ": 508,
      "ãģªãĤī": 509,
      "ãģĶ": 510,
      "ä¸Ń": 511,
      "è©": 512,
      "ãģĹãģĭ": 513,
      "å£": 514,
      "ãģ®ä¸Ń": 515,
      "ãģ¨æĢĿ": 516,
      "åħ¥": 517,
      "ãģĪãģ¦": 518,
      "åĨ": 519,
      "Ľ¸": 520,
      "ãģĴ": 521,
      "âĢķ": 522,
      "å®¶": 523,
      "ä¸»": 524,
      "è«": 525,
      "ãģ³": 526,
      "ãģĳãĤĮ": 527,
      "ãģ«ãĤĤ": 528,
      "ãģ¹": 529,
      "çĪ": 530,
      "åľ": 531,
      "ãģ»": 532,
      "ä¾": 533,
      "å¥³": 534,
      "ãģ¯æ": 535,
      "æľĪ": 536,
      "æĿ¥ãģŁ": 537,
      "ãģ£ãģ¦ãģĦãĤĭ": 538,
      "çī©": 539,
      "çĦ¡": 540,
      "éļ": 541,
      "å°ĳ": 542,
      "ãģĮãĤī": 543,
      "ãģ¤ãģ¦": 544,
      "åŃ¦": 545,
      "ãģĤãĤĬ": 546,
      "è»": 547,
      "åĬ©": 548,
      "ãģĭãĤĬ": 549,
      "æ¯": 550,
      "æľ¬": 551,
      "ãģ¾ãģŁ": 552,
      "ãģĳãģ¦": 553,
      "ãģ®æĸ": 554,
      "éĿ¢": 555,
      "ç¬": 556,
      "ãģĿãģ®": 557,
      "åħĪçĶŁ": 558,
      "ãģ§ãģĤãģ£ãģŁ": 559,
      "åº¦": 560,
      "ä¸į": 561,
      "Įģ": 562,
      "èģŀ": 563,
      "æ±": 564,
      "çĽ®": 565,
      "ãģĺãĤĥ": 566,
      "ãģ¤ãģŁ": 567,
      "ãģ¾ãģĽãĤĵ": 568,
      "ãģ¾ãģ§": 569,
      "åĲĪ": 570,
      "ãĤĢ": 571,
      "èĢħ": 572,
      "ãĤĮãĤĭ": 573,
      "è¾": 574,
      "ãģªãģĮãĤī": 575,
      "ç¾": 576,
      "çĦ¶": 577,
      "å½ĵ": 578,
      "å±ĭ": 579,
      "ãĤĤãģĨ": 580,
      "è²": 581,
      "ãģĦãģ¾ãģĹãģŁ": 582,
      "ãģĮãģĤãĤĭ": 583,
      "åł": 584,
      "ãģµ": 585,
      "ãĤģãģ¦": 586,
      "ç«ĭ": 587,
      "æł": 588,
      "ãģĸ": 589,
      "ãģ²": 590,
      "åĮ": 591,
      "ãģĲ": 592,
      "äººãģ¯": 593,
      "èµ": 594,
      "ãģĹãģ¦ãģĦãĤĭ": 595,
      "âĢ¦": 596,
      "çķ": 597,
      "åĲĮ": 598,
      "éĢļ": 599,
      "çĪ¶": 600,
      "ãģĹãģ¾": 601,
      "åĥķ": 602,
      "åı£": 603,
      "ãģ¨äºĳãģĨ": 604,
      "ãģĿãģ®å": 605,
      "ãģłãģĭãĤī": 606,
      "æ³": 607,
      "åĸ": 608,
      "æĺİ": 609,
      "ãģ®æĸ¹": 610,
      "ãĥ«": 611,
      "å¾Į": 612,
      "åĲĳ": 613,
      "å°ı": 614,
      "å¦": 615,
      "æ¥": 616,
      "å§": 617,
      "çĶ·": 618,
      "ãģĹãģı": 619,
      "ãģĹãĤĩ": 620,
      "è¨Ģ": 621,
      "ãĢĤãĢį": 622,
      "æĤ": 623,
      "æĸİ": 624,
      "ãĥ¼": 625,
      "æ®": 626,
      "åıĸ": 627,
      "éĩĳ": 628,
      "ãĤĲ": 629,
      "ä»£åĬ©": 630,
      "ãĤĪãĤĬ": 631,
      "è¶": 632,
      "åİ": 633,
      "åĩºæĿ¥": 634,
      "ãģ®ãģ§ãģĤãĤĭ": 635,
      "ãģĵãĤį": 636,
      "æ²": 637,
      "ç¨": 638,
      "ãģĪãģŁ": 639,
      "æ¬": 640,
      "æĥ": 641,
      "ãģĿãģ®æ": 642,
      "ãģ®éĸ": 643,
      "æµ": 644,
      "ãģ£ãģ¦ãģĦãģŁ": 645,
      "ãģ®ä¸Ĭ": 646,
      "ķ·": 647,
      "å¸°": 648,
      "åĢ": 649,
      "ãģªãĤĭ": 650,
      "ãģİ": 651,
      "é¡Ķ": 652,
      "é»": 653,
      "æĽ¸": 654,
      "ãģ¨ãģĹãģ¦": 655,
      "æ´": 656,
      "ãĤ¹": 657,
      "æ¸": 658,
      "æİ": 659,
      "å±±": 660,
      "å¹³": 661,
      "ãģłãģĳ": 662,
      "è©±": 663,
      "èŃ": 664,
      "å®Ł": 665,
      "èĭ": 666,
      "æģ": 667,
      "ãģ°ãģĭãĤĬ": 668,
      "ãĤĪãģĨãģª": 669,
      "ãĤĪãģĨãģ«": 670,
      "é¦": 671,
      "ãģĦãģĦ": 672,
      "è¼": 673,
      "ãģ®å®": 674,
      "æĦı": 675,
      "ãģĹãĤĩãģĨ": 676,
      "ãĤĵãģ§ãģĻ": 677,
      "ãģ®å¤": 678,
      "ãģĹãģĭãģĹ": 679,
      "åĽĽéĥİ": 680,
      "ãģ®äºĭ": 681,
      "æļ": 682,
      "èī": 683,
      "ãģıãĤī": 684,
      "ä»ĺ": 685,
      "èĪ": 686,
      "åĪĩ": 687,
      "çĻ½": 688,
      "ãģĳãģŁ": 689,
      "ãģ®ãģĭ": 690,
      "ãģĿãĤĵãģª": 691,
      "å¥½": 692,
      "çļ": 693,
      "ãģ¨ãĤĤ": 694,
      "ä¸īåĽĽéĥİ": 695,
      "æĪ¸": 696,
      "çĶ°": 697,
      "ãģĪãĤĭ": 698,
      "å¤ĸ": 699,
      "çĽ¸": 700,
      "å°ĳãģĹ": 701,
      "ãĤĴãģĹãģ¦": 702,
      "ãģĳãĤĮãģ©": 703,
      "ãĤīãģªãģĦ": 704,
      "ãĥ©": 705,
      "èĢĥ": 706,
      "åĭķ": 707,
      "æĻ": 708,
      "éķ·": 709,
      "è¾¼": 710,
      "ãģĦãģ¤": 711,
      "ä»ķ": 712,
      "ãĥ³ãĥ": 713,
      "ãĢĤãĢĮ": 714,
      "ç©": 715,
      "º«": 716,
      "ç½": 717,
      "ãģ®æī": 718,
      "ãģĻãĤĭãģ¨": 719,
      "å»": 720,
      "æĸĩ": 721,
      "ä½ĵ": 722,
      "æŀ": 723,
      "ä¸ĸ": 724,
      "ãģĨãģ¨": 725,
      "å¤ī": 726,
      "çĻ¾": 727,
      "¢¨": 728,
      "ãĤĮãģ°": 729,
      "ãĤģãģŁ": 730,
      "è³": 731,
      "è¿Ķ": 732,
      "ãģ®éĸĵ": 733,
      "æĮģ": 734,
      "½æĸİ": 735,
      "ãĤ¢": 736,
      "åķ": 737,
      "æ¬¡": 738,
      "ãģĿãģĵ": 739,
      "äººéĸĵ": 740,
      "ãģ¯ãģªãģĦ": 741,
      "ç¬ĳ": 742,
      "çĲ": 743,
      "åľ°": 744,
      "æŃ»": 745,
      "ãģ¶": 746,
      "ãģ¡ãĤĥ": 747,
      "æľ¨": 748,
      "æ¯į": 749,
      "ä»¥": 750,
      "éĩİ": 751,
      "äººãģĮ": 752,
      "ĿĢ": 753,
      "å¾Ĺ": 754,
      "åģ": 755,
      "ãģĵãģ®å": 756,
      "èĳ": 757,
      "ãģłãĤįãģĨ": 758,
      "å¼ķ": 759,
      "é«": 760,
      "éģķ": 761,
      "âĢķâĢķ": 762,
      "èĥ": 763,
      "æĬ½æĸİ": 764,
      "ãģ»ãģ©": 765,
      "ãģ¨ãģĵãĤį": 766,
      "ãģ¾ãģł": 767,
      "ãĤĮãģªãģĦ": 768,
      "é£Ł": 769,
      "ãģŁãģł": 770,
      "é¢¨": 771,
      "çª": 772,
      "éħ": 773,
      "å£°": 774,
      "ä¼ļ": 775,
      "è§": 776,
      "ãģ«ãģªãģ£ãģŁ": 777,
      "çĭ": 778,
      "ãģŁãĤģ": 779,
      "åĲį": 780,
      "ãģ«ãģªãģ£ãģ¦": 781,
      "æħ": 782,
      "ãģĮãģªãģĦ": 783,
      "å²": 784,
      "å§ĭ": 785,
      "ãģªãģĭ": 786,
      "å¥¥": 787,
      "åĲ¾": 788,
      "ãģĨãģ¡": 789,
      "æĿ¥ãģ¦": 790,
      "çĶ¨": 791,
      "ãĤĲãĤĭ": 792,
      "ãģ«ãģĹãģ¦": 793,
      "åħŃ": 794,
      "åĩºãģĹãģŁ": 795,
      "ãģĵãģĨ": 796,
      "ãģķãĤĵãģ¯": 797,
      "åĳ³": 798,
      "ãģĳãĤĮãģ©ãĤĤ": 799,
      "éłŃ": 800,
      "ãģ¨ãģ¯": 801,
      "çĶº": 802,
      "ãģįãģª": 803,
      "äºĭãĤĴ": 804,
      "å¤©": 805,
      "ãģ¼": 806,
      "éģĶ": 807,
      "ãĢįãĢĮ": 808,
      "åħ¨": 809,
      "ãģªãģ©": 810,
      "ãģķãģĦ": 811,
      "è¶³": 812,
      "çĲĨ": 813,
      "çĹ": 814,
      "æ°´": 815,
      "åķı": 816,
      "ãĥĥ": 817,
      "å±ħ": 818,
      "åĩºãģ¦": 819,
      "èº«": 820,
      "Ĳ½": 821,
      "ãģĤãģª": 822,
      "æĿ±": 823,
      "åħ«": 824,
      "ãģĿãĤĮãģĭãĤī": 825,
      "ãģľ": 826,
      "ãĤĤçŁ¥": 827,
      "ãĤ¸": 828,
      "ä»£åĬ©ãģ¯": 829,
      "å©": 830,
      "ãģ«ãģªãĤĭ": 831,
      "æł¡": 832,
      "ãģłãģĮ": 833,
      "éĥ¨": 834,
      "è¡Įãģı": 835,
      "èī²": 836,
      "æĶ": 837,
      "éģĵ": 838,
      "è¼©": 839,
      "è¦ª": 840,
      "æ°ĹãģĮ": 841,
      "åĲĽãģ¯": 842,
      "ãģŁãģĦ": 843,
      "çľ¼": 844,
      "çľŁ": 845,
      "ãģĤãģªãģŁ": 846,
      "èĳī": 847,
      "ä¿Ŀ": 848,
      "âĢ¦âĢ¦": 849,
      "ä¿¡": 850,
      "å¤ļ": 851,
      "ãĤīãĤĮãģŁ": 852,
      "ãģ¾ãĤĬ": 853,
      "ãĤĪãģı": 854,
      "è»Ĭ": 855,
      "ãĥª": 856,
      "æŃ³": 857,
      "ãģĦãģ¾ãģĻ": 858,
      "ãģĳãĤĮãģ°": 859,
      "çĤ": 860,
      "ãģĳãĤĭ": 861,
      "ãģŁãģı": 862,
      "ãĥ§": 863,
      "ç¥": 864,
      "çŃī": 865,
      "ç·": 866,
      "æĤª": 867,
      "æĭ": 868,
      "ãģĵãĤĵãģª": 869,
      "Ł³": 870,
      "äº¬": 871,
      "ç¾İ": 872,
      "ä¸Ģäºº": 873,
      "ãģ§ãģĹãģŁ": 874,
      "ãģĻãģĲ": 875,
      "ç¨ĭ": 876,
      "è£": 877,
      "çĽ´": 878,
      "ãĤ¤": 879,
      "èĤ": 880,
      "ãģ®ãģĮ": 881,
      "ãģ®æ§ĺ": 882,
      "äºĭãģĮ": 883,
      "åĿ": 884,
      "ãģĺãĤĥãģªãģĦ": 885,
      "åĲ¾è¼©": 886,
      "ãģĵãģ®": 887,
      "ãģªãģ£ãģŁ": 888,
      "ãģªãĤĬ": 889,
      "åĲĮãģĺ": 890,
      "ãģ®åħ": 891,
      "æ°ı": 892,
      "ãĥĳ": 893,
      "ãģ©ãģĵ": 894,
      "è¿·": 895,
      "ãģĿãģĨãģĹãģ¦": 896,
      "ãģĹãģ¦ãģĦãģŁ": 897,
      "ãģĽãģ¦": 898,
      "å¤«": 899,
      "ä¸īåĽĽéĥİãģ¯": 900,
      "æĿ¥ãĤĭ": 901,
      "çļĦ": 902,
      "ãĥĲ": 903,
      "äºĳãģĨ": 904,
      "ï¼Ł": 905,
      "è«ĸ": 906,
      "ãģ®å®¶": 907,
      "éģİ": 908,
      "ç¦": 909,
      "åł´": 910,
      "ä½ķãģĭ": 911,
      "ãĥĪ": 912,
      "ãģĹãģ¾ãģĹãģŁ": 913,
      "ãģķãģĪ": 914,
      "é¤": 915,
      "åĨħ": 916,
      "ãģĤãĤĬãģ¾ãģĽãĤĵ": 917,
      "åħĥ": 918,
      "å¯¾": 919,
      "ãģıãĤīãģĦ": 920,
      "ãģªãģĳãĤĮãģ°": 921,
      "å½¼ãģ¯": 922,
      "ãĤ«": 923,
      "åĸĦ": 924,
      "åĩºãģĹãģ¦": 925,
      "ãģĶãģ¨": 926,
      "èĭ¦": 927,
      "æŃ¤": 928,
      "åĬĽ": 929,
      "èĬ": 930,
      "ãģªãĤĵ": 931,
      "ãģ®åŃ": 932,
      "åıĹ": 933,
      "åįĥ": 934,
      "æĪĲ": 935,
      "æĸ°": 936,
      "å®ī": 937,
      "ç«": 938,
      "éĸĢ": 939,
      "åĪ¥": 940,
      "ãĤĵãģ¨": 941,
      "ä½ľ": 942,
      "ãģ®é¡": 943,
      "ãģ®å¥": 944,
      "æĮ": 945,
      "ãĥı": 946,
      "è¦ļ": 947,
      "èª°": 948,
      "äºĶçĻ¾": 949,
      "ãģ®æľ": 950,
      "èħ": 951,
      "è¨³": 952,
      "ï¼«": 953,
      "ãģĹãģ¾ãģ£ãģŁ": 954,
      "åĤ": 955,
      "åĪĿ": 956,
      "ä¸Ī": 957,
      "ãģĿãĤĮãģ¯": 958,
      "ä¸»äºº": 959,
      "åĦ": 960,
      "æŃ©": 961,
      "ãģ«ãģĭ": 962,
      "ãģ®éł": 963,
      "å¤ľ": 964,
      "ãĤ·": 965,
      "å¬": 966,
      "ãģĬãĤĮ": 967,
      "ç½®": 968,
      "ãģĹãģªãģĦ": 969,
      "çŃĶ": 970,
      "é¦¬": 971,
      "æĹ©": 972,
      "äºĮåįģ": 973,
      "å¸«": 974,
      "ãģ¡ãĤĩ": 975,
      "æ·": 976,
      "ãĤĤãģ®ãģ§": 977,
      "è«¸": 978,
      "è¿ĳ": 979,
      "é³": 980,
      "ãģ®å¾": 981,
      "å¯Ĵ": 982,
      "äºĮäºº": 983,
      "è¦ĭãĤĭãģ¨": 984,
      "çİ": 985,
      "æ¨": 986,
      "åĽ½": 987,
      "ç¸": 988,
      "ãģ¨ãģĭ": 989,
      "ãĤĴãģĹãģŁ": 990,
      "ãģ¦ãģĦãĤĭ": 991,
      "ä¸Ģãģ¤": 992,
      "ãģĦãģ§": 993,
      "ãģĿãĤĮãģĮ": 994,
      "é«ĺ": 995,
      "ãĥŃ": 996,
      "ãģĿãģĹãģ¦": 997,
      "ãģ®åīį": 998,
      "ãģĦãĤĦ": 999,
      "ãģĵãģĵ": 1000,
      "èĮ": 1001,
      "æĦŁ": 1002,
      "èĲ½": 1003,
      "ç´°": 1004,
      "æŁ": 1005,
      "é£Ľ": 1006,
      "åĵ": 1007,
      "çĮ": 1008,
      "ãģĭãģ«": 1009,
      "ãģ®è¨": 1010,
      "ãģ®åı": 1011,
      "ãĤĬãģ¾ãģĹãģŁ": 1012,
      "ä½Ļ": 1013,
      "éĸĭ": 1014,
      "åħ¶": 1015,
      "åĭĿ": 1016,
      "åıĪ": 1017,
      "ä¸ĥ": 1018,
      "ä¸»äººãģ¯": 1019,
      "åŃ¦æł¡": 1020,
      "ãģ¾ãĤĭ": 1021,
      "ãģ£ãģ¦ãĤĤ": 1022,
      "ãģĭãĤĤçŁ¥": 1023,
      "é¼": 1024,
      "èµ·": 1025,
      "å«": 1026,
      "å¾ħ": 1027,
      "ãĥ³ãĥĭ": 1028,
      "çĿĢ": 1029,
      "ä¸ĬãģĴ": 1030,
      "ãĤĴèª": 1031,
      "äºŃ": 1032,
      "ãĤ¸ãĥ§": 1033,
      "ãģ®é¡Ķ": 1034,
      "ãģŁãģ¡": 1035,
      "ãĤĤãģªãģĦ": 1036,
      "ãģ®åĲ": 1037,
      "éģł": 1038,
      "éĢĻ": 1039,
      "å¼µ": 1040,
      "ãĥĲãĥ³ãĥĭ": 1041,
      "ãĤ¸ãĥ§ãĥĲãĥ³ãĥĭ": 1042,
      "ä¸İ": 1043,
      "ãģ£ãģ": 1044,
      "ãĤĴãģĻãĤĭ": 1045,
      "ãĤīãģĹãģĦ": 1046,
      "ãĤīãĤĮ": 1047,
      "åı¯": 1048,
      "ãģ®æĻĤ": 1049,
      "å·Ŀ": 1050,
      "éĢļãĤĬ": 1051,
      "å²¡": 1052,
      "èĶ": 1053,
      "Ł¥": 1054,
      "è¡Įãģ£ãģŁ": 1055,
      "ãģķãĤĵãģĮ": 1056,
      "ãģĭãģª": 1057,
      "æ¥Ń": 1058,
      "ãĤĴèģŀ": 1059,
      "ä¾ĭ": 1060,
      "è¦ģ": 1061,
      "æŃ£": 1062,
      "éĩį": 1063,
      "ãģ®æīĭ": 1064,
      "ãĥł": 1065,
      "æĢ¥": 1066,
      "æĽ": 1067,
      "ãģ¾ãģ¾": 1068,
      "å¿ħ": 1069,
      "ãĤĤãģ®ãģ¯": 1070,
      "åĳ½": 1071,
      "ãģĹãĤĥ": 1072,
      "èµ¤": 1073,
      "æ£": 1074,
      "æ±Ł": 1075,
      "ãģĿãģ®ç": 1076,
      "èį": 1077,
      "ç¬¬": 1078,
      "é§": 1079,
      "ãģĿãģ®æĻĤ": 1080,
      "çı": 1081,
      "ç¤": 1082,
      "ãģłãģĭ": 1083,
      "å¤§ãģįãģª": 1084,
      "ãģĵãĤĮãģ¯": 1085,
      "ãģķãģ¾": 1086,
      "ãģĵãģ¨ãģĮ": 1087,
      "åī": 1088,
      "çŁ³": 1089,
      "åħī": 1090,
      "ãģ¹ãģį": 1091,
      "ãģ®ä¸ĭ": 1092,
      "ãĤīãĤĮãģ¦": 1093,
      "å¸¸": 1094,
      "ãģ«è¦ĭ": 1095,
      "ä½¿": 1096,
      "æĥħ": 1097,
      "æķĻ": 1098,
      "ãģ®å¦": 1099,
      "ä¾Ľ": 1100,
      "é»Ĵ": 1101,
      "æ§ĺãģª": 1102,
      "ãģ¤ãģĦãģ¦": 1103,
      "ãģ«ãģĬ": 1104,
      "ç´Ļ": 1105,
      "æ¼": 1106,
      "éĤ": 1107,
      "©ļ": 1108,
      "ãģ§ãģ¯ãģªãģĦ": 1109,
      "å³": 1110,
      "ãģ®ãģĬ": 1111,
      "èĩªåĪĨãģ¯": 1112,
      "åİŁ": 1113,
      "å»»": 1114,
      "ãģĤãģ£ãģ¦": 1115,
      "ç¥ŀ": 1116,
      "ãģ®äºº": 1117,
      "ä¹Ŀ": 1118,
      "çµĲ": 1119,
      "ãģłãģ£ãģŁ": 1120,
      "ãģĽãĤĭ": 1121,
      "åĳ¼": 1122,
      "å¦Ļ": 1123,
      "ç¶": 1124,
      "æ©": 1125,
      "ãģ§ãģĹãĤĩãģĨ": 1126,
      "ãģ¥": 1127,
      "ãĤīãģı": 1128,
      "å·±": 1129,
      "ãģĦãģĭ": 1130,
      "äºĭãģ¯": 1131,
      "ä»ĬæĹ¥": 1132,
      "ãģłãģ£ãģ¦": 1133,
      "ãģ®å¿": 1134,
      "éģİãģİ": 1135,
      "ãģŀ": 1136,
      "æĸŃ": 1137,
      "æķ·": 1138,
      "è¦ĭãģŁ": 1139,
      "é©ļ": 1140,
      "ãģĽãģŁ": 1141,
      "å¯Ħ": 1142,
      "å£«": 1143,
      "ãģĦãģĨ": 1144,
      "è¿·äºŃ": 1145,
      "ãģĦãģ«": 1146,
      "åħĦ": 1147,
      "ãĤĴæĬ": 1148,
      "ãĥ¡": 1149,
      "§ĭ": 1150,
      "å¤±": 1151,
      "æĿ±äº¬": 1152,
      "ä¸¡": 1153,
      "èªŀ": 1154,
      "ãĢĢ": 1155,
      "å¡": 1156,
      "ãģĦãĤį": 1157,
      "è¥": 1158,
      "ãĤĨ": 1159,
      "ãģ®ãģ«": 1160,
      "ãĤĴãĤĤ": 1161,
      "ºãģĹãģ¦": 1162,
      "åı¤": 1163,
      "ãģ®çľ": 1164,
      "æİĽ": 1165,
      "èĮ¶": 1166,
      "ãĤĴãģ¤": 1167,
      "ãģĿãĤĮãģ§": 1168,
      "ãģ®ãģŁãĤģ": 1169,
      "ãĤĬãģ«": 1170,
      "æľī": 1171,
      "ãĤĴæĮģ": 1172,
      "è§£": 1173,
      "å¯Ŀ": 1174,
      "éĢĻåħ¥": 1175,
      "çĸ": 1176,
      "æĻº": 1177,
      "éĬ": 1178,
      "åĩºãģĻ": 1179,
      "ãĤīãģļ": 1180,
      "æ¬¡éĥİ": 1181,
      "å¼·": 1182,
      "éĸ¢": 1183,
      "åĮĸ": 1184,
      "ãģªãģ£ãģ¦": 1185,
      "ä½į": 1186,
      "ãģ®ãĤĪãģĨãģ«": 1187,
      "æģĲ": 1188,
      "åĩºãģŁ": 1189,
      "ãģ®éĢ": 1190,
      "ãģłãģ¨": 1191,
      "ãģıãĤĮ": 1192,
      "å¬¢": 1193,
      "æĹ¥ãģ«": 1194,
      "èĸ": 1195,
      "ãģĤãĤįãģĨ": 1196,
      "çĶ»": 1197,
      "çł": 1198,
      "ä¹Ĺ": 1199,
      "éĿĴ": 1200,
      "åįĥä»£": 1201,
      "èģ": 1202,
      "éŃ": 1203,
      "ãģ®éģ": 1204,
      "åĺ": 1205,
      "æľĢ": 1206,
      "ãģ®æīĢ": 1207,
      "ãģ£ãģ¡": 1208,
      "ãģ¿ãĤĵãģª": 1209,
      "ç©º": 1210,
      "è«ĩ": 1211,
      "è«¸æĪ¸": 1212,
      "çĹħ": 1213,
      "ãĤģãĤĭ": 1214,
      "åįĬ": 1215,
      "ãĤĴè¨": 1216,
      "çĬ": 1217,
      "ãģķãĤĮãģŁ": 1218,
      "æĨ": 1219,
      "é£²": 1220,
      "ãĤ¯": 1221,
      "åħĪçĶŁãģ¯": 1222,
      "é¹": 1223,
      "åĥķãģ¯": 1224,
      "ãģĶãģ¨ãģı": 1225,
      "ãģ®å°": 1226,
      "ãģ«ç«ĭ": 1227,
      "è·": 1228,
      "èŃ°": 1229,
      "ãĤĴè¦ĭãģ¦": 1230,
      "ãĥį": 1231,
      "ç§ģãģĮ": 1232,
      "èªŃ": 1233,
      "è¡Įãģ£ãģ¦": 1234,
      "ãĤĤãģĹ": 1235,
      "ãģ©ãģĨãģĹãģ¦": 1236,
      "ãģ®ä¸Ģ": 1237,
      "ä»®": 1238,
      "ãģĺãģ¦": 1239,
      "ãģ«å¯¾": 1240,
      "ãģĭãģªãģĦ": 1241,
      "ãģĵãģ¨ãĤĴ": 1242,
      "ãģĿãĤĮãĤĴ": 1243,
      "ãģįãģ¾ãģĹãģŁ": 1244,
      "æı": 1245,
      "è¬": 1246,
      "ä¸īåįĥä»£": 1247,
      "åĪ©": 1248,
      "å³¶": 1249,
      "æ¶": 1250,
      "çĩ": 1251,
      "ãģ®æ¯": 1252,
      "ãģ®ãĤĤ": 1253,
      "èĩ³": 1254,
      "çªģ": 1255,
      "ãģ¾ãĤĭãģ§": 1256,
      "æĢĿãĤı": 1257,
      "éļĽ": 1258,
      "å¥¥ãģķãĤĵ": 1259,
      "é¹¿": 1260,
      "ãģĹãģ°": 1261,
      "ĦŁ": 1262,
      "ãģ®åŃĲ": 1263,
      "éĿŀ": 1264,
      "ãģĦãģªãģĦ": 1265,
      "åº§": 1266,
      "å¯ĴæľĪ": 1267,
      "ãģ«åħ¥": 1268,
      "ãĤĤãģ®ãģĮ": 1269,
      "ãģĭãģ¨": 1270,
      "æ³ķ": 1271,
      "åŃĹ": 1272,
      "æµģ": 1273,
      "æĪĳ": 1274,
      "åĮ»": 1275,
      "æ¥½": 1276,
      "åĴ": 1277,
      "ãĤĤãģªãģı": 1278,
      "æ®µ": 1279,
      "ãģ®ãĤĴ": 1280,
      "åħ¨ãģı": 1281,
      "ãĤĴæİ": 1282,
      "æ¡": 1283,
      "ãģĦãĤī": 1284,
      "ãģĤãģĤ": 1285,
      "éłĥ": 1286,
      "ç¾©": 1287,
      "ãĤĤãģ®ãģł": 1288,
      "©±": 1289,
      "ãģĶãģĸ": 1290,
      "çĻ½ãģĦ": 1291,
      "çģ": 1292,
      "ãģĦãģ¦ãģĦãĤĭ": 1293,
      "ãģ®ãģªãģĦ": 1294,
      "ãģ¡ãĤĩãģ£ãģ¨": 1295,
      "ãĤĴãģĭ": 1296,
      "å¦»": 1297,
      "çķª": 1298,
      "ãģ®åĪ": 1299,
      "ä»ĸ": 1300,
      "æļĹ": 1301,
      "å¼ķãģį": 1302,
      "æº": 1303,
      "ãĤıãģĸ": 1304,
      "èª¿": 1305,
      "ãģªãĤĵãģł": 1306,
      "ãģıãĤĭ": 1307,
      "ç¿": 1308,
      "ãģĿãģ®è": 1309,
      "æĢ§": 1310,
      "æ§ĺãģ«": 1311,
      "ç®": 1312,
      "å¥½ãģĦ": 1313,
      "çĭ¬": 1314,
      "åŃĲãģ¯": 1315,
      "éŁ³": 1316,
      "ãĢģãĢĮ": 1317,
      "åı³": 1318,
      "è¡¨": 1319,
      "åıĸãĤĬ": 1320,
      "ãģ¡ãĤĥãĤĵ": 1321,
      "æŀľ": 1322,
      "æķ°": 1323,
      "ãĤīãĤĵ": 1324,
      "ãĢİ": 1325,
      "ãĢı": 1326,
      "ãģ¯ãģĦ": 1327,
      "éģ£": 1328,
      "ãĤĴçŁ¥": 1329,
      "ãģ¨è¦ĭ": 1330,
      "ãģ®åº": 1331,
      "å¾Ģ": 1332,
      "è¨ĺ": 1333,
      "ãĤĤãģ£ãģ¨": 1334,
      "éº": 1335,
      "å¹³å²¡": 1336,
      "éī": 1337,
      "éľ": 1338,
      "ãģ®ãģ§ãģĹãģŁ": 1339,
      "èŃ¦": 1340,
      "ãģ¨æĢĿãģ£ãģŁ": 1341,
      "ãģ®å¤§": 1342,
      "åºĥ": 1343,
      "µĲ": 1344,
      "å®¿": 1345,
      "å®¤": 1346,
      "ãģŃãģĪ": 1347,
      "æĢĿãģĦ": 1348,
      "åİ»": 1349,
      "åĲĽãģĮ": 1350,
      "ãĥģ": 1351,
      "å®ļ": 1352,
      "è¢": 1353,
      "ķĻ": 1354,
      "ãģ£ãģĹãĤĥ": 1355,
      "è§Ĵ": 1356,
      "èĹ": 1357,
      "åıĭ": 1358,
      "ãģªãģıãģ¦": 1359,
      "ãĤıãģŁãģı": 1360,
      "ãģ®å½": 1361,
      "æĥ³": 1362,
      "é¦¬é¹¿": 1363,
      "ãĥĦ": 1364,
      "ãģ®ä¸Ńãģ«": 1365,
      "é¼»": 1366,
      "èĢģ": 1367,
      "éł¼": 1368,
      "æķħ": 1369,
      "ãģ£ãģ±": 1370,
      "ãģ¾ãģĦ": 1371,
      "ãģĵãģ®æ": 1372,
      "ä¹ħ": 1373,
      "ãģ§ãģĻãģĭ": 1374,
      "å®Ī": 1375,
      "ãĤıãģŁãģıãģĹ": 1376,
      "çµĮ": 1377,
      "é»Ļ": 1378,
      "èĦ": 1379,
      "æĸ¹ãģĮ": 1380,
      "æ§ĭ": 1381,
      "èª¬": 1382,
      "æ·±": 1383,
      "çħ": 1384,
      "èįī": 1385,
      "ãģĤãĤĮ": 1386,
      "åĽ°": 1387,
      "ãģ®ãģĤãĤĭ": 1388,
      "åħµ": 1389,
      "ãģ«éĢ": 1390,
      "ãĤĪãĤĬãĤĤ": 1391,
      "ãĢĤâĢķâĢķ": 1392,
      "ãĤĴè²": 1393,
      "çĤº": 1394,
      "ãģĮãģĤãģ£ãģŁ": 1395,
      "âĢ¦âĢ¦ãĢį": 1396,
      "æĻĤãģ«": 1397,
      "åĦª": 1398,
      "ãģĦãģªãģĮãĤī": 1399,
      "æ¥µ": 1400,
      "éħį": 1401,
      "ï¼ŁãĢį": 1402,
      "æĹ©ãģı": 1403,
      "Ģĥ": 1404,
      "ãĤĴæĮ": 1405,
      "å¿µ": 1406,
      "ãģĭãĤĤçŁ¥ãĤĮãģªãģĦ": 1407,
      "åŃĺ": 1408,
      "èĢĥãģĪ": 1409,
      "åŁ": 1410,
      "ãģŁãĤĬ": 1411,
      "ãĤ¿": 1412,
      "åĲī": 1413,
      "µ·": 1414,
      "Ĺ¥": 1415,
      "ãĥ£": 1416,
      "ä»¶": 1417,
      "ãģ¨ãģĦãģ£ãģŁ": 1418,
      "ãĤīãģ¬": 1419,
      "è¡Ľ": 1420,
      "è±": 1421,
      "é¨": 1422,
      "ãģĦãģ¾": 1423,
      "ãģ®è¡": 1424,
      "ãģ«è¿": 1425,
      "ãģ®å£": 1426,
      "ãģ©ãĤĵãģª": 1427,
      "åģ´": 1428,
      "ãģ£ãģį": 1429,
      "æīĵ": 1430,
      "æ´ĭ": 1431,
      "ç¢": 1432,
      "çı¾": 1433,
      "éĿĻ": 1434,
      "è¶Ĭ": 1435,
      "ç²": 1436,
      "ãģ®ãĤĪãģĨãģª": 1437,
      "éĽ¢": 1438,
      "æĺİæĻº": 1439,
      "æĩ": 1440,
      "ãĤīãĤĮãĤĭ": 1441,
      "ãģ£ãģ¦æĿ¥ãģŁ": 1442,
      "éĽ»": 1443,
      "ãĤª": 1444,
      "é»Ħ": 1445,
      "åĲĳãģĨ": 1446,
      "ãģ¨æĢĿãģ£ãģ¦": 1447,
      "è¥¿": 1448,
      "ãģĤãģ¨": 1449,
      "è¦ĭãģĪ": 1450,
      "äºĳãģ£ãģŁ": 1451,
      "ãģ¹ãģ¦": 1452,
      "ä¸İæ¬¡éĥİ": 1453,
      "ãģ®å¿ĥ": 1454,
      "ãģĵãģ®ç": 1455,
      "éģĭ": 1456,
      "å¿ĺ": 1457,
      "ãĤĵãģ§ãģĦãĤĭ": 1458,
      "èµ°": 1459,
      "ãĤĦãĤĬ": 1460,
      "ãĥī": 1461,
      "ãģĹãĤį": 1462,
      "ãģĻãĤĮãģ°": 1463,
      "å¥ĩ": 1464,
      "ãģ²ãģ¨": 1465,
      "ãģ«ãĤĪ": 1466,
      "åħ±": 1467,
      "åĬł": 1468,
      "åĭ¢": 1469,
      "ãĥķ": 1470,
      "ãģ®æ°": 1471,
      "¯ãĤĴ": 1472,
      "èĶµ": 1473,
      "ãģķãĤĮãģ¦": 1474,
      "ãģ®åĩ": 1475,
      "ãģ¾ãģĽãĤĵãģ§": 1476,
      "è³ª": 1477,
      "é¡Į": 1478,
      "èĭ¥": 1479,
      "æľį": 1480,
      "ä½ı": 1481,
      "ãģĺãĤĥãģªãģĦãģĭ": 1482,
      "æ¢": 1483,
      "å¥´": 1484,
      "çĻº": 1485,
      "ãģ®çĶŁ": 1486,
      "ãģŁãĤĭ": 1487,
      "ãģ¨äºĳãģ£ãģŁ": 1488,
      "åĲ¹": 1489,
      "äºĭãĤĤ": 1490,
      "ãģļãģ«": 1491,
      "ä¼Ŀ": 1492,
      "èĥ½": 1493,
      "ãģªãģĳãĤĮãģ°ãģªãĤī": 1494,
      "çĮ«": 1495,
      "åĥı": 1496,
      "ãģĨãģ¡ãģ«": 1497,
      "åĪ»": 1498,
      "ä¼¼": 1499,
      "ãģ®ãĤĪãģĨ": 1500,
      "ä¸ĩ": 1501,
      "ãģ®éļ": 1502,
      "èĪŀ": 1503,
      "å½¢": 1504,
      "ãģ¨äºĳãģ£ãģ¦": 1505,
      "ãĤĴæī": 1506,
      "Ħı": 1507,
      "ãģ®æŃ": 1508,
      "ç¹": 1509,
      "è¨Ģèĳī": 1510,
      "æ²¢": 1511,
      "æ´»": 1512,
      "ãĤĴåıĹ": 1513,
      "äº¤": 1514,
      "æľĿ": 1515,
      "å·¦": 1516,
      "ãģ®å¥³": 1517,
      "ãģ«ãģĤãĤĭ": 1518,
      "å®®": 1519,
      "ãģ¾ãģĤ": 1520,
      "åĽº": 1521,
      "ä»¥ä¸Ĭ": 1522,
      "½®": 1523,
      "ãģĪãģ°": 1524,
      "é£Ľãģ³": 1525,
      "ãģĴãģ¦": 1526,
      "ãĥŃãĤ¹": 1527,
      "åĽ³": 1528,
      "¹´": 1529,
      "é³´": 1530,
      "åĿĲ": 1531,
      "ä»Ĭåº¦": 1532,
      "ãĤĵãģ©": 1533,
      "å¨": 1534,
      "ãģ©ãģĨãĤĤ": 1535,
      "ãĤ¸ãĥ§ãĥĲãĥ³ãĥĭãģ¯": 1536,
      "ãģĹãģ°ãĤīãģı": 1537,
      "ãģ¾ãģĽãĤĵãģ§ãģĹãģŁ": 1538,
      "æĿ¾": 1539,
      "ãģĺãģŁ": 1540,
      "èģŀãģĦãģŁ": 1541,
      "ãģ£ãģ¦ãĤĭ": 1542,
      "åĩºæĿ¥ãĤĭ": 1543,
      "ãĤĴå¾Ĺ": 1544,
      "ãģķãģĨ": 1545,
      "åı°": 1546,
      "ãģ®éĩ": 1547,
      "å¢": 1548,
      "ãģĿãģĨãģł": 1549,
      "ãģĵãģ¨ãģ¯": 1550,
      "ãĤĬãĤĥ": 1551,
      "å¤ª": 1552,
      "è»½": 1553,
      "ãĤŃ": 1554,
      "éļł": 1555,
      "ãģ¯ãģļ": 1556,
      "ãģ®å¸": 1557,
      "çĶ±": 1558,
      "å¯¸": 1559,
      "ãģ®å¾¡": 1560,
      "ãģĵãģ®è": 1561,
      "å¹¸": 1562,
      "åŃĲãģĮ": 1563,
      "ĢĿ": 1564,
      "ãģ§ãģį": 1565,
      "ä»¤": 1566,
      "æ®º": 1567,
      "æµ·": 1568,
      "çĨ": 1569,
      "å¾³": 1570,
      "å®¢": 1571,
      "å¿ľ": 1572,
      "ä»ķæĸ¹": 1573,
      "ä½ķãģłãģĭ": 1574,
      "æ®ĭ": 1575,
      "ãģĦãĤĪ": 1576,
      "ãģĤãĤī": 1577,
      "ãĤĴè¦ĭãģŁ": 1578,
      "ãģ®éłŃ": 1579,
      "èĲ½ãģ¡": 1580,
      "ãĤ³": 1581,
      "å¯º": 1582,
      "æ²»": 1583,
      "ç¦°": 1584,
      "é§Ħ": 1585,
      "ãģ®éĥ": 1586,
      "ãĤĦãĤĭ": 1587,
      "ç¯": 1588,
      "æĢĿèŃ°": 1589,
      "åįģäºĮ": 1590,
      "ãĥ¡ãĥŃãĤ¹": 1591,
      "éĽ£": 1592,
      "ãģ®è¨Ģ": 1593,
      "ãĥłãĥĳ": 1594,
      "ãĥįãĥ«": 1595,
      "æį": 1596,
      "ãĤĴéĢ": 1597,
      "åºŃ": 1598,
      "çµ¦": 1599,
      "åĨĨ": 1600,
      "é¦ĸ": 1601,
      "çĶ³": 1602,
      "æĢª": 1603,
      "å¯Ł": 1604,
      "ä¸ģ": 1605,
      "ãģ®ä¸Ĭãģ«": 1606,
      "éħĴ": 1607,
      "éª": 1608,
      "ãģ®å¦Ĥ": 1609,
      "ãĤ«ãĥłãĥĳ": 1610,
      "ãĥįãĥ«ãĥ©": 1611,
      "ãĤ«ãĥłãĥĳãĥįãĥ«ãĥ©": 1612,
      "ä¸¦": 1613,
      "å¾ĵ": 1614,
      "ãģ¡ãĤī": 1615,
      "ãģıãģ¨": 1616,
      "ãģ®åį": 1617,
      "å°ĭ": 1618,
      "ãģ«èģŀ": 1619,
      "çĥ": 1620,
      "ä¿Ĥ": 1621,
      "è¾¼ãĤĵãģ§": 1622,
      "ãģ¦ãĤĤ": 1623,
      "ãģ¤ãĤĤ": 1624,
      "ãģ®åĲį": 1625,
      "å¦Ļãģª": 1626,
      "ãģĦãģıãĤī": 1627,
      "ãģĭãģĹ": 1628,
      "ãģ¨æĢĿãģĨ": 1629,
      "ãģĸãĤĭ": 1630,
      "æ¤": 1631,
      "ãĤĬãģ§": 1632,
      "ãĤĬãģ¾ãģĻ": 1633,
      "ãĤĪãģĨãģ¨": 1634,
      "ãĥıãĥı": 1635,
      "ãģĤãģ¾ãĤĬ": 1636,
      "å®¹": 1637,
      "ãĤıãģªãģĦ": 1638,
      "å¿«": 1639,
      "é¤¨": 1640,
      "ä»®éĿ¢": 1641,
      "ãģ¦ãģ¦": 1642,
      "ãģĪãģĪ": 1643,
      "åĪ¤": 1644,
      "ãģ®æĸ¹ãģ¸": 1645,
      "ä»¥ãģ¦": 1646,
      "éĻĲ": 1647,
      "åĶ": 1648,
      "Ĥº": 1649,
      "è¨Ī": 1650,
      "ãĥŀ": 1651,
      "åīįãģ«": 1652,
      "å¤§å¤ī": 1653,
      "çªĵ": 1654,
      "ãģ«åĲĳ": 1655,
      "ĭæ±Ł": 1656,
      "ãģĳãģªãģĦ": 1657,
      "å©¦": 1658,
      "çĤ¹": 1659,
      "æĦĽ": 1660,
      "åĩºãĤĭ": 1661,
      "ç¾İç¦°": 1662,
      "ä¸ĭãģķãģĦ": 1663,
      "ãģ®å¤ĸ": 1664,
      "ãģĭãģĦ": 1665,
      "èĢĥãģĪãģ¦": 1666,
      "èĻ": 1667,
      "äºĭãģ«": 1668,
      "éģĬ": 1669,
      "ãĤĲãģŁ": 1670,
      "ãĤĴçľ": 1671,
      "å¸°ãģ£ãģ¦": 1672,
      "ãģ¨ãģĵãĤįãģĮ": 1673,
      "åĽ£": 1674,
      "çĦ¡è«ĸ": 1675,
      "åĢĴ": 1676,
      "ãģĦãģ£ãģŁ": 1677,
      "åĪĿä»£": 1678,
      "æĬľ": 1679,
      "ãĤĦãģĮ": 1680,
      "éĻĦ": 1681,
      "æĿĳ": 1682,
      "èī¯": 1683,
      "é³¥": 1684,
      "ãģĤãĤĵãģª": 1685,
      "ãĤĵãģ§ãģĻãģĭ": 1686,
      "ãĤĵãģłãģĭãĤī": 1687,
      "æ©Ł": 1688,
      "çģ«": 1689,
      "äºķ": 1690,
      "ãĥ¬": 1691,
      "ä¸Ńãģ«": 1692,
      "çµĤ": 1693,
      "åħ¬": 1694,
      "å°¾": 1695,
      "çīĩ": 1696,
      "ãģ®èĩ": 1697,
      "ãģ¨ãģĦãģ£ãģ¦": 1698,
      "åľŁ": 1699,
      "æ»": 1700,
      "ãģ«èĩ³": 1701,
      "æĺĶ": 1702,
      "ãģ®åĩº": 1703,
      "ãģĦãģ¦ãģĦãģŁ": 1704,
      "Ļº": 1705,
      "ãĤĬãģ¨": 1706,
      "æľĽ": 1707,
      "åľĴ": 1708,
      "ç¨®": 1709,
      "çİĦ": 1710,
      "ãģĭãģı": 1711,
      "ä¸īåįģ": 1712,
      "ãĤ¨": 1713,
      "ãģ®æ¯Ĵ": 1714,
      "åįĺ": 1715,
      "ãģ©ãģĨãģĭ": 1716,
      "ç±": 1717,
      "ãĤĴéĸĭ": 1718,
      "ãģ®éĢļ": 1719,
      "ï¼Ī": 1720,
      "ï¼ī": 1721,
      "ãģĿãģĵãģ§": 1722,
      "é¤Ĭ": 1723,
      "èħ¹": 1724,
      "ãģĦãģ¨": 1725,
      "åıį": 1726,
      "ç¤¾": 1727,
      "ãģĬå¬¢": 1728,
      "ãģ®ãģłãģĭãĤī": 1729,
      "äºĶéĥİ": 1730,
      "è²°": 1731,
      "ãĤĴèªŃ": 1732,
      "ãģ¯ä½ķ": 1733,
      "ãĤĴä»¥ãģ¦": 1734,
      "ãģĺãĤĥãģĤãĤĬãģ¾ãģĽãĤĵ": 1735,
      "åŀ": 1736,
      "ãĤ¦": 1737,
      "çĶŁãģį": 1738,
      "åĴĮ": 1739,
      "ãģ¯ãĤĬ": 1740,
      "ãģ®ä¸Ńãģ§": 1741,
      "ç½ª": 1742,
      "¥µ": 1743,
      "äºĮäººãģ¯": 1744,
      "ãĤĴè¿": 1745,
      "éĻį": 1746,
      "æ¹": 1747,
      "ãģļãĤĭ": 1748,
      "ãģ¤ãģ¦ãĤĲãĤĭ": 1749,
      "Ĥª": 1750,
      "å¾Ĵ": 1751,
      "åĲ¾è¼©ãģ¯": 1752,
      "æľ¬å½ĵ": 1753,
      "ãģ®ãģĶãģ¨ãģı": 1754,
      "ãģ«ãģ¤ãģĦãģ¦": 1755,
      "å´": 1756,
      "éĢ²": 1757,
      "æīĢãģ¸": 1758,
      "æĮ¯": 1759,
      "äºĮãģ¤": 1760,
      "åľ¨": 1761,
      "ãĤīãģĹãģı": 1762,
      "è³Ĭ": 1763,
      "è¡Įãģį": 1764,
      "çķĻ": 1765,
      "åĩºæĿ¥ãģªãģĦ": 1766,
      "ç¶ļ": 1767,
      "ãģ®çľ¼": 1768,
      "ãģ§ãģĤãĤįãģĨ": 1769,
      "ä»»": 1770,
      "å½ĵæĻĤ": 1771,
      "åĢŁ": 1772,
      "å«Į": 1773,
      "éĽĨ": 1774,
      "å©ļ": 1775,
      "ãĤĿ": 1776,
      "ãģ®ãģ¿": 1777,
      "ãģįãģ£ãģ¨": 1778,
      "ãģĬæ¯į": 1779,
      "å¥³ãģ¯": 1780,
      "æ°Ĺãģ®æ¯Ĵ": 1781,
      "ä¸¸": 1782,
      "ãĤĴæĭ": 1783,
      "æł¹": 1784,
      "Ĺħ": 1785,
      "å¿ĥéħį": 1786,
      "æĦıåĳ³": 1787,
      "ç¸ģ": 1788,
      "åĵģ": 1789,
      "å°ıãģķ": 1790,
      "ãĤīãģªãģĭãģ£ãģŁ": 1791,
      "ç«ĭãģ¡": 1792,
      "èĬ±": 1793,
      "å¤¢": 1794,
      "æŃ¦": 1795,
      "ãģ¨äºĳãģµ": 1796,
      "åıĤ": 1797,
      "éĢĶ": 1798,
      "æĹ¥æľ¬": 1799,
      "å¿ħãģļ": 1800,
      "çĸĳ": 1801,
      "ãģ¾ãģĪ": 1802,
      "çĽ¸æīĭ": 1803,
      "ãģ®ãģŁãĤģãģ«": 1804,
      "è¡ĵ": 1805,
      "ãģ«è¨": 1806,
      "é¡ĶãĤĴ": 1807,
      "ãģ®ä¸į": 1808,
      "ãģ®ãģĨãģ¡": 1809,
      "ãģ¾ãģ§ãĤĤ": 1810,
      "éĩĳä»®éĿ¢": 1811,
      "æ¨ª": 1812,
      "éĿŀå¸¸": 1813,
      "ãģ«å¯¾ãģĹãģ¦": 1814,
      "ãĤīãģĦ": 1815,
      "ãģıãĤĮãģŁ": 1816,
      "ãģ®èª": 1817,
      "ä»ķæĸ¹ãģĮãģªãģĦ": 1818,
      "ãģ®ãģ¨": 1819,
      "ãģ«ä¸Ģ": 1820,
      "ãģĮä¸Ģ": 1821,
      "ãĤĦãģĮãģ¦": 1822,
      "ç³": 1823,
      "ãģªãģĬ": 1824,
      "ä¸įæĢĿèŃ°": 1825,
      "çķĮ": 1826,
      "åĸľ": 1827,
      "éĢĥ": 1828,
      "å¼ģ": 1829,
      "æĺ¯": 1830,
      "æĬĺ": 1831,
      "è»Ĵ": 1832,
      "å®Łãģ¯": 1833,
      "ãģĨãģ¨ãģĨ": 1834,
      "æĴ": 1835,
      "ãģĹãģªãģĮãĤī": 1836,
      "æŃ¿": 1837,
      "åŃĲä¾Ľ": 1838,
      "éķ·ãģĦ": 1839,
      "æĶ¿": 1840,
      "ãģ¯ä¸Ģ": 1841,
      "ãĤĦãģ¯ãĤĬ": 1842,
      "ãĤıãĤĭ": 1843,
      "åĪĨãĤīãģªãģĦ": 1844,
      "å¿ĥæĮģ": 1845,
      "ãģĹãģĭãĤĤ": 1846,
      "ãĤ·ãĥ£": 1847,
      "ãģ¤ãģĭ": 1848,
      "ç§ģãģ«ãģ¯": 1849,
      "è²·": 1850,
      "çĩĪ": 1851,
      "æĻĤéĸĵ": 1852,
      "ãģĤãĤĬãģ¾ãģĻ": 1853,
      "æ¿": 1854,
      "ãģ«ãĤĦ": 1855,
      "ãģ®ä¸Ńãģ¸": 1856,
      "å°ĭãģŃ": 1857,
      "ı¡": 1858,
      "ãĤįãģĹãģĦ": 1859,
      "ģĲ": 1860,
      "ãģªãģľ": 1861,
      "èĩªåĪĨãģĮ": 1862,
      "ãģ®åĳ": 1863,
      "æ¯İ": 1864,
      "è¾¼ãĤĵãģł": 1865,
      "éŃĶ": 1866,
      "äºĶçĻ¾ãģ¯": 1867,
      "ãģĭãģŃ": 1868,
      "ãģ®åĭ": 1869,
      "æł¼": 1870,
      "ãģªãĤĵãģĭ": 1871,
      "ãģ®éĥ¨": 1872,
      "åħ·": 1873,
      "ãĢħå®®": 1874,
      "ł´": 1875,
      "ä½ķãģ§ãĤĤ": 1876,
      "éĽĳ": 1877,
      "ãģ®å£°": 1878,
      "ãģ®çĤº": 1879,
      "ãģ¿ãģŁãģĦ": 1880,
      "ãĤĴçĿĢ": 1881,
      "éĥ¨å±ĭ": 1882,
      "çªģçĦ¶": 1883,
      "ãģłãĤĪ": 1884,
      "ãģĿãģĨãģª": 1885,
      "ä½ķãĤĤ": 1886,
      "ãģĪãģ¦ãģĦãĤĭ": 1887,
      "çĦ¡ãģĦ": 1888,
      "æİ¢": 1889,
      "ãģ¤ãģı": 1890,
      "åŃĲãĤĴ": 1891,
      "å¤§åĪĨ": 1892,
      "èĬ¸": 1893,
      "ãģ®éĽ": 1894,
      "éģķãģªãģĦ": 1895,
      "å£²": 1896,
      "æ¸Ī": 1897,
      "ãģıãģªãģ£ãģŁ": 1898,
      "å·®": 1899,
      "èĴ": 1900,
      "ãģ¾ãģ£ãģ¦": 1901,
      "ãģĵãģ®å¹´": 1902,
      "ãĤĬãģ¦": 1903,
      "ãĤıãĤĮãģ¦": 1904,
      "ãģ®ä¸ī": 1905,
      "äºĮä¸ī": 1906,
      "èŃĺ": 1907,
      "æĬ½æĸİãģ¯": 1908,
      "ãģ¨ãģĨãģ¨ãģĨ": 1909,
      "éĩİãĢħå®®": 1910,
      "ãģ£ãģ±ãĤĬ": 1911,
      "ãģĹãģį": 1912,
      "æĢĴ": 1913,
      "æĺ¨": 1914,
      "æīĭãĤĴ": 1915,
      "èĥ¸": 1916,
      "åı¥": 1917,
      "å®ĺ": 1918,
      "éĹ": 1919,
      "ãģĬåīį": 1920,
      "å¦Ĥ": 1921,
      "ãģĭãĤĭ": 1922,
      "įãģ³": 1923,
      "åıĬ": 1924,
      "äºĭãģĮãģĤãĤĭ": 1925,
      "éĸĵãģ«": 1926,
      "èı": 1927,
      "ãģ£ãģ¦ãģ¯": 1928,
      "å½¼çŃī": 1929,
      "åĿĬ": 1930,
      "ãĤĴä¸Ģ": 1931,
      "ãĥľ": 1932,
      "ç§°": 1933,
      "å®ħ": 1934,
      "æī¿": 1935,
      "ãģ®å°ı": 1936,
      "ãĤĬè¿Ķ": 1937,
      "ãģķãģ£ãģį": 1938,
      "ãģ«ãģªãĤĬ": 1939,
      "æĤªãģĦ": 1940,
      "å¼¥": 1941,
      "çŁ¢": 1942,
      "ãģ®å·": 1943,
      "æĢĸ": 1944,
      "ãģ®ä¸ĸ": 1945,
      "æ³¨": 1946,
      "ãģĤãģ®": 1947,
      "æ°¸": 1948,
      "éĢ£": 1949,
      "æ´¾": 1950,
      "æĻ©": 1951,
      "ãģ«ãģĹãģŁ": 1952,
      "ãģĮãģĤãģ£ãģ¦": 1953,
      "ãģ®æĦı": 1954,
      "å¸Ń": 1955,
      "å§ĭãĤģãģ¦": 1956,
      "ãģ®æ§ĺãģª": 1957,
      "ãģ®æĿ": 1958,
      "ãģ®æ°Ĺ": 1959,
      "æĺĵ": 1960,
      "ãģ®åĨ": 1961,
      "ãģ®åĬ": 1962,
      "éĿ¢çĽ®": 1963,
      "æ±ºãģĹãģ¦": 1964,
      "ãģĶãģĸãģĦãģ¾ãģĻ": 1965,
      "¨ª": 1966,
      "¶³": 1967,
      "ãģĵãģ£ãģ¡": 1968,
      "ä»Ļ": 1969,
      "ãĥ¼ãĥĪ": 1970,
      "åĻ": 1971,
      "ãģªãģķ": 1972,
      "è¦³": 1973,
      "éĥ½": 1974,
      "äº¡": 1975,
      "èĩªçĦ¶": 1976,
      "åįģä¸Ģ": 1977,
      "éīĦ": 1978,
      "ãģ®è¨Ģèĳī": 1979,
      "ãģ«ãģ¨": 1980,
      "æĢ¥ãģ«": 1981,
      "ãģĤãĤĬãģ¾ãģĹãģŁ": 1982,
      "ãĤĤãģĤãĤĭ": 1983,
      "ç§ģéģĶ": 1984,
      "æĻĤãģ¯": 1985,
      "çĭĤ": 1986,
      "ç¤¼": 1987,
      "ãģ«çĽ¸": 1988,
      "ãĤĤãģ®ãģ§ãģĤãĤĭ": 1989,
      "ãģ®åĤ": 1990,
      "ç§Ģ": 1991,
      "ãģ®éĿ": 1992,
      "èĩ´": 1993,
      "åºķ": 1994,
      "ãģĵãĤĮãģĮ": 1995,
      "çĹĽ": 1996,
      "ãģ®çĽ": 1997,
      "åĢĻ": 1998,
      "æ¸ħ": 1999,
      "ãĥĳãĥ³": 2000,
      "èĸĦ": 2001,
      "çĬ¶": 2002,
      "ãģ®å¦Ĥãģı": 2003,
      "ãģ§ãģªãģĦ": 2004,
      "ãģ®åĽ": 2005,
      "å¹¾": 2006,
      "åĨ·": 2007,
      "ä¸»äººãģĮ": 2008,
      "æ³¢": 2009,
      "å©Ĩ": 2010,
      "ãģ¨åĲĮãģĺ": 2011,
      "åı·": 2012,
      "è¦ĭãĤĭ": 2013,
      "ãĤĤãģ®ãĤĴ": 2014,
      "ãģĿãģĨãģ§ãģĤãĤĭ": 2015,
      "ãĤıãģŁãģıãģĹãģ¯": 2016,
      "æĻĤãĢħ": 2017,
      "ãģĹãĤĪãģĨ": 2018,
      "æĦŁãģĺ": 2019,
      "çį": 2020,
      "ĭ¦": 2021,
      "å¤§ãģį": 2022,
      "ä¹±": 2023,
      "è²´": 2024,
      "çķ°": 2025,
      "å¿ħè¦ģ": 2026,
      "ãģ«æİ": 2027,
      "éĽ¨": 2028,
      "ãģĹãģ¾ãģĨ": 2029,
      "ãģĦãĤīãģ£ãģĹãĤĥ": 2030,
      "éª¨": 2031,
      "åĳĬ": 2032,
      "ä¸ĬãģĮ": 2033,
      "ç·ļ": 2034,
      "ãģªãĤĵãģ¦": 2035,
      "ãĤĨãĤĭ": 2036,
      "ãĤıãĤĮãģŁ": 2037,
      "ãĤĴç«ĭ": 2038,
      "ãģ®æĹ¥": 2039,
      "ãģ®éłĥ": 2040,
      "ãģªãģĭãģ£ãģŁãģ®ãģ§ãģĻ": 2041,
      "æķ¬": 2042,
      "ãģ¨ãģį": 2043,
      "ãĥ¤": 2044,
      "ãģ«èª": 2045,
      "æ¸ĭæ±Ł": 2046,
      "ãģĭãĤĤçŁ¥ãĤĮ": 2047,
      "åĩºæĿ¥ãģŁ": 2048,
      "ç§ģãĤĴ": 2049,
      "é«ª": 2050,
      "ãģªãģıãģ¦ãģ¯": 2051,
      "ãģ®ç´": 2052,
      "çµ¶": 2053,
      "ãģķãģĤ": 2054,
      "ãĤĴæį": 2055,
      "æ¯Ľ": 2056,
      "çĵ": 2057,
      "ãģĭãģĪ": 2058,
      "åı£ãĤĴ": 2059,
      "ç«¹": 2060,
      "ä»Ĭåº¦ãģ¯": 2061,
      "ãģ®èĩª": 2062,
      "ãģ«ãģĤ": 2063,
      "ãģ®èĥ": 2064,
      "ãģ®æĸ¹ãģĮ": 2065,
      "å¸°ãģ£ãģŁ": 2066,
      "½è»Ĭ": 2067,
      "ãģŁãģ£ãģŁ": 2068,
      "ãĥ»": 2069,
      "å¼ĺ": 2070,
      "æĪĸ": 2071,
      "ä¾Ŀ": 2072,
      "åł±": 2073,
      "ãģ®åħĪ": 2074,
      "ãĤĤãģ®ãģĭ": 2075,
      "ãĤĴè¦ĭãĤĭãģ¨": 2076,
      "åłĤ": 2077,
      "æ©ĭ": 2078,
      "ãģ®å±": 2079,
      "åı«": 2080,
      "ãĤĦãģ£ãģ±ãĤĬ": 2081,
      "éĩĪ": 2082,
      "ãģ¿ãģŁ": 2083,
      "ä¾¿": 2084,
      "ç¬¬ä¸Ģ": 2085,
      "ãģ¤ãģĦ": 2086,
      "äºĭä»¶": 2087,
      "æīĢãģ«": 2088,
      "ãģ¾ãģļ": 2089,
      "ä¹ĭ": 2090,
      "é¡ĶãĤĴãģĹãģ¦": 2091,
      "æ£Ĵ": 2092,
      "é»ĴãģĦ": 2093,
      "ãģ¢": 2094,
      "ãģ¦ãģĦãģŁ": 2095,
      "ãģĹãģŁãĤī": 2096,
      "ãģķãĤĮãĤĭ": 2097,
      "æ³£": 2098,
      "Ī¶": 2099,
      "ãģĹãģ«": 2100,
      "äºĪ": 2101,
      "ãģ«ãģªãģ£ãģ¦ãģĦãģŁ": 2102,
      "å¥¥ãģķãĤĵãģ¯": 2103,
      "ãģ®æ§ĺãģ«": 2104,
      "é»Ħéĩĳä»®éĿ¢": 2105,
      "æĸĻ": 2106,
      "ãĤĵãģ§ãģĦãģŁ": 2107,
      "èº": 2108,
      "éĪ": 2109,
      "ķ°": 2110,
      "é¡ŀ": 2111,
      "ãģ£ãģĭãĤĬ": 2112,
      "çŃĨ": 2113,
      "åıĸãģ£ãģ¦": 2114,
      "åķıé¡Į": 2115,
      "è·¯": 2116,
      "èĿ": 2117,
      "ãģ®ãģłãģĮ": 2118,
      "ãģłãģĳãģ¯": 2119,
      "ãģĺãĤĥãģĤãĤĬãģ¾ãģĽãĤĵãģĭ": 2120,
      "ãģłãģŃ": 2121,
      "éĿ¢çĻ½ãģĦ": 2122,
      "çĪ¶ãģ¯": 2123,
      "åıĶ": 2124,
      "è¦ĭãģĪãĤĭ": 2125,
      "æīĭç´Ļ": 2126,
      "çŃĪ": 2127,
      "èĢħãģ¯": 2128,
      "ãģ®éĸĵãģ«": 2129,
      "ä¸Īå¤«": 2130,
      "ãģĽãĤīãĤĮãģŁ": 2131,
      "ç©į": 2132,
      "³åľĴ": 2133,
      "ãĥĨ": 2134,
      "ãģ£ãģ¦ãģĦãģ¾ãģĹãģŁ": 2135,
      "å½±": 2136,
      "å¿Ĺ": 2137,
      "å£°ãģ§": 2138,
      "æ¡Ī": 2139,
      "¨æĭ": 2140,
      "ãĤĴãģĹãģ¦ãģĦãĤĭ": 2141,
      "ãģ¤ãģį": 2142,
      "ä»Ĭãģ¾ãģ§": 2143,
      "ãģ®éĢļãĤĬ": 2144,
      "¨æĭ¶": 2145,
      "ãģ¨ãģĨ": 2146,
      "ãĤīãģĨ": 2147,
      "ãģĿãĤĮãģ§ãĤĤ": 2148,
      "å¼±": 2149,
      "ãģ¨çŃĶ": 2150,
      "ãģ®ç¾": 2151,
      "ãģ«æĬ": 2152,
      "åĳĳ": 2153,
      "ãĤĭãģ«": 2154,
      "äººãģ«": 2155,
      "è¿Ħ": 2156,
      "æģ¯": 2157,
      "ä»ı": 2158,
      "ãģĵãĤĮãģĭãĤī": 2159,
      "ãģ²ãģ©": 2160,
      "ãĥ«ãĥĳãĥ³": 2161,
      "ãģ®åľ": 2162,
      "è»¢": 2163,
      "ãģĦãģ¦ãĤĤ": 2164,
      "è¡Įãģĭ": 2165,
      "ŃĶ": 2166,
      "ãĤĴãģ¨": 2167,
      "åĩ¦": 2168,
      "ãĤ·ãĥ£ãĥĦ": 2169,
      "å·²": 2170,
      "æļ®": 2171,
      "ãģŁãĤģãģ«": 2172,
      "éŁ": 2173,
      "ãģªãģıãģªãģ£ãģŁ": 2174,
      "æĸ°èģŀ": 2175,
      "ãģĦãģ¯": 2176,
      "äººãĤĴ": 2177,
      "ãģ§ãģĻãģŃ": 2178,
      "ãģ®ãģłãĤįãģĨ": 2179,
      "ãĥ¼ãĥ«": 2180,
      "æģĭ": 2181,
      "å«ģ": 2182,
      "é©ļãĤį": 2183,
      "ãģ®èĬ": 2184,
      "ãģ¼ãģı": 2185,
      "æ¢ħ": 2186,
      "åįģäºĶ": 2187,
      "çĨ±": 2188,
      "ãģĹãģ¾ãģĻ": 2189,
      "ãģ¨ä¸»äººãģ¯": 2190,
      "ãģ®è£": 2191,
      "èĽ": 2192,
      "ãģŁãģ¾": 2193,
      "ãĥĶ": 2194,
      "èĪİ": 2195,
      "ãģĬãĤĮãģ¯": 2196,
      "ãģĮãģĦãģĦ": 2197,
      "ãģ®å§": 2198,
      "ãģµãģ¨": 2199,
      "æ¸¡": 2200,
      "é§ĦçĽ®": 2201,
      "½ãģĦ": 2202,
      "èĨ": 2203,
      "ãģ«ãģĻãĤĭ": 2204,
      "ç§»": 2205,
      "ãģĦãģ¤ãĤĤ": 2206,
      "ãģ©ãģĨãģĹãģ¦ãĤĤ": 2207,
      "åĦªåĸĦ": 2208,
      "ãĤĴçľº": 2209,
      "ãģ®å¼": 2210,
      "ç«ĭãģ¦": 2211,
      "åįĴ": 2212,
      "ãģĿãĤĮãģ«": 2213,
      "äºĮå¹´": 2214,
      "ãģ®å¾Į": 2215,
      "åºĹ": 2216,
      "å§ĭãĤģãģŁ": 2217,
      "ãĤĴè²·": 2218,
      "ãģ¤ãĤĤãĤĬ": 2219,
      "ãģªãģķãģĦ": 2220,
      "ãĤĴé£Ł": 2221,
      "åłĢ": 2222,
      "å£°ãģĮ": 2223,
      "ãģķãĤĮ": 2224,
      "å·»": 2225,
      "åĪĩãĤĬ": 2226,
      "æĤ²": 2227,
      "ç§ģãĤĤ": 2228,
      "å·¥": 2229,
      "ä¼ĳ": 2230,
      "çļĨ": 2231,
      "ãĤĴãĤĤãģ£ãģ¦": 2232,
      "ãģıãĤĬ": 2233,
      "ãģĹãģ¦ãĤĤ": 2234,
      "ãĤĴæĦŁ": 2235,
      "éĽ²": 2236,
      "å°ĳãĢħ": 2237,
      "æ²³": 2238,
      "ãģªãĤĭãģ»ãģ©": 2239,
      "è£ı": 2240,
      "ãģĮãģŁ": 2241,
      "ãģ£ãģŁãĤĬ": 2242,
      "æ²Ļ": 2243,
      "ãģªãģĭãģªãģĭ": 2244,
      "æĶ¾": 2245,
      "ãģĦãģł": 2246,
      "ãģĦãĤı": 2247,
      "ãģĭãģĹãģĦ": 2248,
      "ãģ¾ãģĹãĤĩãģĨ": 2249,
      "ãģĪãģªãģĦ": 2250,
      "ãģ®è©±": 2251,
      "åĽŀ": 2252,
      "ãĤĤãģ®ãģłãģĭãĤī": 2253,
      "ãģ§ãģĻãģĭãĤī": 2254,
      "çĦ¶ãģ¨ãģĹãģ¦": 2255,
      "éĺ": 2256,
      "éĢĢ": 2257,
      "ĭåº¦": 2258,
      "ãģĻãģĵ": 2259,
      "è¡Ģ": 2260,
      "éĬĢ": 2261,
      "°·": 2262,
      "å¸ĥ": 2263,
      "éĩĮ": 2264,
      "ãĤĮãģ¦ãģĦãĤĭ": 2265,
      "å°ĳãģĹãĤĤ": 2266,
      "ãĥĽ": 2267,
      "ãģĿãĤĬãĤĥ": 2268,
      "ãģ®æĢ": 2269,
      "ãĤĴæĽ¸": 2270,
      "ãĤĴæĢĿ": 2271,
      "éĢ¢": 2272,
      "éĻ¸": 2273,
      "åħĪçĶŁãģĮ": 2274,
      "ãģ¤ãģ¾ãĤĬ": 2275,
      "æĹı": 2276,
      "å±Ī": 2277,
      "ãĥ´": 2278,
      "ãĤĪãģĹ": 2279,
      "ä¸ĸéĸĵ": 2280,
      "ãģ®èº«": 2281,
      "ãģ®éĥ¨å±ĭ": 2282,
      "ãģ«ãģĦãĤĭ": 2283,
      "çľł": 2284,
      "åº§æķ·": 2285,
      "ãĤīãģĹ": 2286,
      "æľ«": 2287,
      "æľŁ": 2288,
      "çĽĹ": 2289,
      "ãģªãĤīãģ¬": 2290,
      "ãģĤãģªãģŁãģ¯": 2291,
      "ãģ£ãģ¡ãĤĥ": 2292,
      "ãģ¾ãģĹãģ¦": 2293,
      "ä¸Ģåº¦": 2294,
      "ãĤĴæ®": 2295,
      "æĶ¯": 2296,
      "ãģ¾ãģ£ãģŁ": 2297,
      "ãģ®è¿": 2298,
      "ãģ´": 2299,
      "è¡£": 2300,
      "éĽª": 2301,
      "çĦ¶ãģĹ": 2302,
      "æŃ»ãģ¬": 2303,
      "ãģ¼ãĤĵ": 2304,
      "ä¸Ģå¯¸": 2305,
      "ç§ģãģ«": 2306,
      "éļİ": 2307,
      "èģŀãģį": 2308,
      "èģ·": 2309,
      "æĩ¸": 2310,
      "ãĥĭ": 2311,
      "ãģ®å¢": 2312,
      "ãģĿãģĨãģ«": 2313,
      "ãģĶãĤĵ": 2314,
      "æħ®": 2315,
      "èĤī": 2316,
      "ãĤĴæĮģãģ£ãģ¦": 2317,
      "ãģªãĤīãģªãģĦ": 2318,
      "å®ŁéļĽ": 2319,
      "ĳãģĦ": 2320,
      "ãĤıãģĭãĤī": 2321,
      "æŃ¢": 2322,
      "æ¶Ī": 2323,
      "åĲ¦": 2324,
      "å¤ķ": 2325,
      "ãģ©ãĤĤ": 2326,
      "æľª": 2327,
      "ãģ¸è¡Įãģ£ãģ¦": 2328,
      "æĿ¥ãģ¾ãģĹãģŁ": 2329,
      "äºĳãģĦãģ¾ãģĹãģŁ": 2330,
      "è»į": 2331,
      "åĪĳ": 2332,
      "åºĬ": 2333,
      "æ§ĺåŃĲ": 2334,
      "éĻ¢": 2335,
      "çľŁéĿ¢çĽ®": 2336,
      "ãģ¢ãĤĦ": 2337,
      "ä¼¯": 2338,
      "ãģĵãĤĮãĤĴ": 2339,
      "ãĤµ": 2340,
      "ãģ®èĢ": 2341,
      "ãģ»ãĤĵãģ¨": 2342,
      "ä¸įåı¯": 2343,
      "æĨ¶": 2344,
      "ãĥ¡ãĥŃãĤ¹ãģ¯": 2345,
      "çĿ": 2346,
      "ãģ¨ãģĬ": 2347,
      "äºĭå®Ł": 2348,
      "è¦ĭãģ¦": 2349,
      "ãģ¸åĩºãģ¦": 2350,
      "æ°Ĺãģ§": 2351,
      "ãģ§ãģĻãĤĪ": 2352,
      "ãģ¨æĢĿãģĨãģ¨": 2353,
      "æŀ³åľĴ": 2354,
      "é¨ĵ": 2355,
      "ãģ®ãģķ": 2356,
      "ä½ķãģ¨ãĤĤ": 2357,
      "çŀ": 2358,
      "ãģ«åĩº": 2359,
      "ãĤĦãģ£ãģ¦": 2360,
      "æķµ": 2361,
      "è²ŀ": 2362,
      "å¦¹": 2363,
      "æħ¢": 2364,
      "çľ¼ãĤĴ": 2365,
      "ç¦ı": 2366,
      "å¸½": 2367,
      "éĥ·": 2368,
      "ç´Ħ": 2369,
      "ãģªãģĭãģ¤ãģŁ": 2370,
      "æĿ±é¢¨": 2371,
      "ãģ¯ãĤĤãģĨ": 2372,
      "ãģıãģªãģ£ãģ¦": 2373,
      "ä¸īäºº": 2374,
      "ãģªãģĤ": 2375,
      "ãģĬå¬¢ãģķãĤĵ": 2376,
      "ãģĵãģĿ": 2377,
      "ãģ®é«": 2378,
      "ãģ®ç©": 2379,
      "éĤª": 2380,
      "ãĤĴãģĬ": 2381,
      "ä»°": 2382,
      "ãĤĤãģ£ãģ¨ãĤĤ": 2383,
      "è¡ĽéĸĢ": 2384,
      "ãĤ»": 2385,
      "èĩªèº«": 2386,
      "è¼ª": 2387,
      "æŀļ": 2388,
      "ãģĦãģŁãģĮ": 2389,
      "ãģĴãģŁ": 2390,
      "èģŀãģĦãģ¦": 2391,
      "ãģ®åı£": 2392,
      "æĿİ": 2393,
      "ãģ®çµ": 2394,
      "ãģ¨ãģĦãģĨãģ®ãģ¯": 2395,
      "åİŃ": 2396,
      "ä»ĺãģĳ": 2397,
      "ç½®ãģĦãģ¦": 2398,
      "ãĤĬãģĮ": 2399,
      "è¦§": 2400,
      "ç´ł": 2401,
      "å¥³ãģĮ": 2402,
      "ãģ¨è¦ĭãģĪãģ¦": 2403,
      "éı¡": 2404,
      "ãģĵãģ®æĻĤ": 2405,
      "ãģ®çī": 2406,
      "å°Ĩ": 2407,
      "å²©": 2408,
      "çİĭ": 2409,
      "ãģ«ãģĬãģĦãģ¦": 2410,
      "ãģ«å¯¾ãģĻãĤĭ": 2411,
      "åĪĹ": 2412,
      "åĩºãģĹ": 2413,
      "ãģ®éŁ³": 2414,
      "å§¿": 2415,
      "éĩĳçĶ°": 2416,
      "æĽ¸ãģĦãģ¦": 2417,
      "æŃ³ãģ§": 2418,
      "ãģ®ãģ§ãģ¯ãģªãģĦ": 2419,
      "ãĤĴèĢĥ": 2420,
      "éļı": 2421,
      "ç«ĭãģ£ãģ¦": 2422,
      "æ°ĹãģĮä»ĺ": 2423,
      "åī²": 2424,
      "ãģ®çľŁ": 2425,
      "æºĢ": 2426,
      "®éĢļ": 2427,
      "è¸": 2428,
      "ãĥĹ": 2429,
      "è©©": 2430,
      "æ±ł": 2431,
      "å§ī": 2432,
      "ãģ®ä¸Ĭãģ¸": 2433,
      "é¦³": 2434,
      "ä»ķèĪŀ": 2435,
      "ç©´": 2436,
      "ãģ®ä¸»": 2437,
      "å¯§": 2438,
      "ãģ«æµ": 2439,
      "ç«¯": 2440,
      "æīĵãģ¡": 2441,
      "ãĥ´ãĤ": 2442,
      "ãĤĴåĩºãģĹãģ¦": 2443,
      "ãĤĴæŃ": 2444,
      "æ°ĹæĮģ": 2445,
      "æľĪäºĮåįģ": 2446,
      "çĦ¡çĲĨ": 2447,
      "å¸°ãĤĭ": 2448,
      "çµĲå©ļ": 2449,
      "ãģ¯ãģĺ": 2450,
      "ãģ¨ãģªãģı": 2451,
      "çĶ£": 2452,
      "æ±º": 2453,
      "īå¿«": 2454,
      "ãĤĴçµ": 2455,
      "å¹´ãģ«": 2456,
      "ãģ¼ãĤĵãĤĦãĤĬ": 2457,
      "ãĤĴãģĤ": 2458,
      "ãģĭãĤīãģł": 2459,
      "æĿŁ": 2460,
      "åį³": 2461,
      "åĮĹ": 2462,
      "åģµ": 2463,
      "ãģ«ãģĭãģı": 2464,
      "ªģ": 2465,
      "åĪ°": 2466,
      "é£¯": 2467,
      "è£ħ": 2468,
      "åĭĿæīĭ": 2469,
      "ä»ĬæĹ¥ãģ¯": 2470,
      "éŁ¿": 2471,
      "Ĳį": 2472,
      "ãĤĵãģłãĤĵ": 2473,
      "éłĨ": 2474,
      "è©°": 2475,
      "ãģ»ãģ¨": 2476,
      "å¾Įãģ«": 2477,
      "åĪĩãģ£ãģ¦": 2478,
      "è°·": 2479,
      "ãģĹãģĮ": 2480,
      "äºī": 2481,
      "ãģĬãĤĦ": 2482,
      "ãĤĦãģı": 2483,
      "ãĤĤãģ®ãģ¨": 2484,
      "æĪ¦": 2485,
      "ä»£ãĤĬ": 2486,
      "åĥķãģĮ": 2487,
      "èĹ¤": 2488,
      "å°ıãģķãģª": 2489,
      "å¼ı": 2490,
      "ãģĵãģ¨ãģ«": 2491,
      "ï¼«ãģ¯": 2492,
      "ī²": 2493,
      "ãģ®ãĤĪ": 2494,
      "ãģ®å¹": 2495,
      "ãģ®çŁ¥": 2496,
      "åįļ": 2497,
      "éĬŃ": 2498,
      "éľ²": 2499,
      "ãģĬæ¯įãģķãģ¾": 2500,
      "æ±½è»Ĭ": 2501,
      "ãĤĴèģŀãģĦãģ¦": 2502,
      "§£": 2503,
      "ãģ¨è¨Ģ": 2504,
      "ãģłãĤĵãģłãĤĵ": 2505,
      "ãģ«ãģªãĤĭãģ¨": 2506,
      "äºĶåįģ": 2507,
      "åĲĮæĻĤãģ«": 2508,
      "ãģĿãģ®å¤": 2509,
      "ä¸ģåº¦": 2510,
      "è©ķ": 2511,
      "çī©ãĤĴ": 2512,
      "èħ°": 2513,
      "éĪ´": 2514,
      "åµĲ": 2515,
      "ãģ¨è¿·äºŃ": 2516,
      "ãģıãĤĮãĤĭ": 2517,
      "ä¸īæĹ¥": 2518,
      "èĪ¹": 2519,
      "æŃ¿ãģĹãģŁ": 2520,
      "°ãģ¹": 2521,
      "ãģ®æĽ¸": 2522,
      "æĿ¿": 2523,
      "ãģ«æ¸": 2524,
      "å¼Ł": 2525,
      "èĢ³": 2526,
      "åĬĩ": 2527,
      "ãĤįãģĨãģ¨": 2528,
      "ç¬ĳãģĦ": 2529,
      "æŃ»ãĤĵãģł": 2530,
      "ä½ĻãĤĬ": 2531,
      "ãĤĴåĳ¼": 2532,
      "ãģĻãģ¨": 2533,
      "ä½ķãģ«ãĤĤ": 2534,
      "çĶ·ãģĮ": 2535,
      "ç¿Į": 2536,
      "éģĭåĭķ": 2537,
      "ç¾İç¦°åŃĲ": 2538,
      "ãģ½": 2539,
      "ãģĦãģªãģĭãģ£ãģŁ": 2540,
      "ãģ®åĮ": 2541,
      "å°½": 2542,
      "éļľ": 2543,
      "å±±æľ¨": 2544,
      "ãģ®å½±": 2545,
      "ãģĭãģĪãģ£ãģ¦": 2546,
      "ãģ£ãģĹãĤĩ": 2547,
      "ãģĿãĤī": 2548,
      "ãģ«ãģªãģ£ãģ¦ãģĦãĤĭ": 2549,
      "è¨±": 2550,
      "éĻº": 2551,
      "æĤŁ": 2552,
      "ãģªãģ©ãģ¯": 2553,
      "èµ¤ãĤ·ãĥ£ãĥĦ": 2554,
      "æ¹¯": 2555,
      "ãģªäºĭ": 2556,
      "ãģĹãģŁãģĮ": 2557,
      "éģĤ": 2558,
      "æŃĮ": 2559,
      "ãĤĵãģ§ãģĹãĤĩãģĨ": 2560,
      "ãģ³ãģ«": 2561,
      "çĪº": 2562,
      "æ´¥": 2563,
      "--": 2564,
      "ãģ¾ãģ£": 2565,
      "åĩ¡": 2566,
      "å®Ŀ": 2567,
      "åĽ²": 2568,
      "å¸³": 2569,
      "èĢĥãģĪãģŁ": 2570,
      "éĸĢéĩİ": 2571,
      "ç´°åĲĽ": 2572,
      "æĽ²": 2573,
      "ãģ®åºķ": 2574,
      "ãģĭãģ£ãģ¦": 2575,
      "è¦ĸ": 2576,
      "çĪ¶ãģķãĤĵ": 2577,
      "è¾¼ãĤĢ": 2578,
      "æ±ŁæĪ¸": 2579,
      "çİĦéĸ¢": 2580,
      "ãģŁãģĹãģĭ": 2581,
      "ä½İ": 2582,
      "ãĤıãĤĮ": 2583,
      "åĭĻ": 2584,
      "çİī": 2585,
      "ãģĭãĤīãģ§ãģĤãĤĭ": 2586,
      "è¦Ĺ": 2587,
      "å¾®": 2588,
      "èģ´": 2589,
      "ç²¾": 2590,
      "ãģ«åĲĳãģ£ãģ¦": 2591,
      "åħħ": 2592,
      "ãģ¯æ±": 2593,
      "ãĥĥãģ¨": 2594,
      "åĤį": 2595,
      "ãģ®ãģªãģĭ": 2596,
      "ãĤĴé£²": 2597,
      "ãĤĤãģ®ãģ§ãģĻ": 2598,
      "ãĤĬãģ¾ãģĽãĤĵ": 2599,
      "ãģ®ãģ§ãģ¯": 2600,
      "ãģ¸åĩº": 2601,
      "æķ£": 2602,
      "éºĹ": 2603,
      "¬¡": 2604,
      "ç©¶": 2605,
      "ç¿Ĵ": 2606,
      "è¥¿æ´ĭ": 2607,
      "ãģ®åĤį": 2608,
      "ãģĨãĤĵ": 2609,
      "ãģķãģĭ": 2610,
      "äººãģ¨": 2611,
      "ãģ®é»": 2612,
      "ãģļãģ¤": 2613,
      "åºµ": 2614,
      "è¨¼": 2615,
      "ä¼Ĭ": 2616,
      "æĺİæ²»": 2617,
      "çĶ·ãģ¯": 2618,
      "ãģ®ãģĵãģ¨": 2619,
      "ãĤĴåıĸ": 2620,
      "ä¸īéĥİ": 2621,
      "ãģ«ãģªãĤĬãģ¾ãģĹãģŁ": 2622,
      "ï¼¼": 2623,
      "ï¼ı": 2624,
      "å¹´ãģ¯": 2625,
      "åĨĻ": 2626,
      "æ¯Ķ": 2627,
      "å±±åµĲ": 2628,
      "èº«ä½ĵ": 2629,
      "ä¸Īãģĳ": 2630,
      "ä¸ĬãģĴãģ¦": 2631,
      "ãģ®çĻ": 2632,
      "å¹ķ": 2633,
      "å½¹": 2634,
      "ãĤĴçĻº": 2635,
      "èªł": 2636,
      "åĽĽåįģ": 2637,
      "é¡ĺ": 2638,
      "æĬ¼": 2639,
      "æĪĲåĸĦ": 2640,
      "èĸ¬": 2641,
      "çł´": 2642,
      "ãģĨãģ«": 2643,
      "ãĤĴæı": 2644,
      "æ°Ĺãģª": 2645,
      "éĻ½": 2646,
      "éĿ¢çĻ½": 2647,
      "åºĥçĶ°": 2648,
      "åħµè¡Ľ": 2649,
      "ãģ®çĽ®": 2650,
      "ãģĮãģĤ": 2651,
      "ãĤĴæĶ": 2652,
      "æ°Ĺåĳ³": 2653,
      "æ¸Ľ": 2654,
      "ãĢħãģ¯": 2655,
      "ãģĭãģĻ": 2656,
      "ãĥĢ": 2657,
      "ãģ®å¯": 2658,
      "å®Ĺ": 2659,
      "ãģ¸éĢĻåħ¥": 2660,
      "åįĹ": 2661,
      "å¸Ĥ": 2662,
      "ï¼ģ": 2663,
      "å»¶": 2664,
      "ĦĽ": 2665,
      "ãģ«ä¹Ĺ": 2666,
      "ãģ¤ãģĦãģŁ": 2667,
      "ãģ«æĽ¸": 2668,
      "å¸¯": 2669,
      "ãģ©ãģĵãģĭ": 2670,
      "ãĥĸ": 2671,
      "ãģ®ç¥": 2672,
      "éļ£": 2673,
      "éģłãģı": 2674,
      "æįķ": 2675,
      "æ²Ļå¼¥": 2676,
      "éĮ": 2677,
      "ãĤĴéĢļ": 2678,
      "ä½Ĳ": 2679,
      "çµ¦ãģĪ": 2680,
      "ŃãģĦ": 2681,
      "ä½ķæķħ": 2682,
      "å¤§åŃ¦": 2683,
      "èĢħãģĮ": 2684,
      "æĥĳ": 2685,
      "æĽ´": 2686,
      "ï¼ıï¼¼": 2687,
      "Ķç©¶": 2688,
      "ãģ¨ãģ«ãģĭãģı": 2689,
      "åį±": 2690,
      "éĢĨ": 2691,
      "æĻĤä»£": 2692,
      "èģŀãģı": 2693,
      "å±ĭæķ·": 2694,
      "è²ł": 2695,
      "é¨Ĵ": 2696,
      "ãĥĻ": 2697,
      "ãĤıãģļ": 2698,
      "çĪµ": 2699,
      "çķ³": 2700,
      "ãĥªãĥ³": 2701,
      "èª°ãĤĤ": 2702,
      "ãģ«éĢ¢": 2703,
      "å¿ĺãĤĮãģ¦": 2704,
      "ãģ¾ãģ§ãģ¯": 2705,
      "æĿ¥ãģªãģĦ": 2706,
      "ãĤĴè¦ĭãĤĭ": 2707,
      "ãģĿãģ®å¾": 2708,
      "ç¢º": 2709,
      "ç§ĭ": 2710,
      "çĶŁå¾Ĵ": 2711,
      "å¯Ĩ": 2712,
      "åĳ¨": 2713,
      "ãģĲãĤĭ": 2714,
      "é«ĺãģĦ": 2715,
      "ãģ®äººéĸĵ": 2716,
      "ãģĻãģ¹ãģį": 2717,
      "æĿ¯": 2718,
      "å¤§ä¸Īå¤«": 2719,
      "ãĢħãģ¨": 2720,
      "å²¸": 2721,
      "ç°": 2722,
      "äºĴ": 2723,
      "æĮģãģ£ãģ¦": 2724,
      "äºĨ": 2725,
      "åĲ¸": 2726,
      "ãģ®ãģ§ãģĹãĤĩãģĨ": 2727,
      "äºĳãģĨãģ¨": 2728,
      "æĦīå¿«": 2729,
      "ãģ«çĽ¸éģķãģªãģĦ": 2730,
      "ãģĭãģĹãģ¦": 2731,
      "ãģĭãĤīãģ¯": 2732,
      "ãģķãģĽãĤĭ": 2733,
      "ãĤıãĤĮãĤĭ": 2734,
      "ãģ§ãģ¯ãģªãģĭãģ£ãģŁ": 2735,
      "ãģ¹ãģı": 2736,
      "ãģĦãĤįãģĦãĤį": 2737,
      "ãģ»ãģ¨ãĤĵãģ©": 2738,
      "°ãĤĬè¿Ķ": 2739,
      "ãģ¤ãģĳãģ¦": 2740,
      "ç§ĺ": 2741,
      "ä¸Ģä½ĵ": 2742,
      "èĩªå·±": 2743,
      "èĩªåĪĨãģ§": 2744,
      "æīĢãģ§": 2745,
      "ãģ¶ãĤī": 2746,
      "ãģ«å¾ĵ": 2747,
      "ãģıãģªãĤĭ": 2748,
      "ä»ĭ": 2749,
      "ãĤĵãģłãģĮ": 2750,
      "ä¿®": 2751,
      "åĽ°ãĤĭ": 2752,
      "å´İ": 2753,
      "ãĤ±": 2754,
      "ãģ®äºĮ": 2755,
      "ãĤĴãģĹ": 2756,
      "ãģĨãģ©": 2757,
      "ãģ£ãģŁãĤī": 2758,
      "å®ľ": 2759,
      "ãģ«ç½®": 2760,
      "ä¸ĭå®¿": 2761,
      "ãģ§ãģĤãģ£ãģŁãģĮ": 2762,
      "æļ´": 2763,
      "å¼µãĤĬ": 2764,
      "³¨": 2765,
      "ãģ®æĤª": 2766,
      "äººãģ®": 2767,
      "åįĪ": 2768,
      "äºĳãģµ": 2769,
      "ãģĺãģ£ãģ¨": 2770,
      "åŃĲãģ§": 2771,
      "åŀ£": 2772,
      "ãĥĴ": 2773,
      "ãģ®æķĻ": 2774,
      "ç§ĳ": 2775,
      "ãģĬãģĦ": 2776,
      "äºĳãģ£ãģ¦": 2777,
      "æĹ¢": 2778,
      "ãģ®ãĤĤãģ®": 2779,
      "ä½ķæĻĤ": 2780,
      "çĶŁãĤĮãģŁ": 2781,
      "ãģ«æĪ": 2782,
      "æ³¥": 2783,
      "æĮĩ": 2784,
      "ä¸ĬãģĴãģŁ": 2785,
      "å¢ĵ": 2786,
      "ãĤĴå¼ķ": 2787,
      "ãģ®éĻ": 2788,
      "éĢģ": 2789,
      "ãģ«æĺ": 2790,
      "ãģ«æĦŁ": 2791,
      "ç¾½": 2792,
      "èµ·ãģį": 2793,
      "æĢĿãģ£ãģŁ": 2794,
      "ãģ«çľ": 2795,
      "ãĤ¢ãĤ¢": 2796,
      "ãģ¡ãĤĥãĤĵãģ¨": 2797,
      "ãģ®æīĢãģ¸": 2798,
      "ãĤĴæīĵ": 2799,
      "ãģķãģ¦": 2800,
      "ãĤĦãĤī": 2801,
      "ãģ®çĪ¶": 2802,
      "éĢł": 2803,
      "ãĤĵãģ§ãĤĤ": 2804,
      "åĨįãģ³": 2805,
      "èĹ©": 2806,
      "é»Ļãģ£ãģ¦": 2807,
      "ä½ķãģ¨ãģĭ": 2808,
      "åĥį": 2809,
      "èĥĮ": 2810,
      "å§ĭãĤģ": 2811,
      "å¤«å©¦": 2812,
      "èĭ¦æ²Ļå¼¥": 2813,
      "åłĢæľ¨": 2814,
      "ãģ¨ä¸Ģ": 2815,
      "æĮ¨æĭ¶": 2816,
      "ãģ«ãĤĪãģ£ãģ¦": 2817,
      "æĹħ": 2818,
      "æľĪåįģ": 2819,
      "æŁĦ": 2820,
      "ãĥ´ãĤ¡": 2821,
      "ãģ¡ãĤĩãģĨãģ©": 2822,
      "ãģĶãĤĵãģ¯": 2823,
      "ãģĹãģķ": 2824,
      "ãĤĭãģĵãģ¨": 2825,
      "ãģĻãģĮ": 2826,
      "ãģ®ç¬": 2827,
      "æĬµ": 2828,
      "åĲĪãĤı": 2829,
      "çĦ¶ãģ¨": 2830,
      "åĢĭ": 2831,
      "ä¸ĸãģ®ä¸Ń": 2832,
      "éģłæħ®": 2833,
      "éĸ¢ä¿Ĥ": 2834,
      "èŃ¦éĥ¨": 2835,
      "ãģĹãģªãģĭãģ£ãģŁ": 2836,
      "Ĳ½ãģ¡": 2837,
      "å¬ī": 2838,
      "ä»²": 2839,
      "ãģĪãģ¾ãģĹãģŁ": 2840,
      "ãģ®é¦": 2841,
      "ãģ®éķ·": 2842,
      "èĩªãĤī": 2843,
      "åĭ¤": 2844,
      "å·¡": 2845,
      "éĽĦ": 2846,
      "å®¶ãģ«": 2847,
      "è¾ŀ": 2848,
      "ãĤģãģ¦ãģĦãģŁ": 2849,
      "å®īå¿ĥ": 2850,
      "ãĤĴæİĽ": 2851,
      "æ·±å±±æľ¨": 2852,
      "ãĤĴæĮ¯": 2853,
      "ãĤĬãģªãģĮãĤī": 2854,
      "ãģ®æĪ": 2855,
      "ç´Ķ": 2856,
      "æ¬¡ç¬¬": 2857,
      "å¤ļãģı": 2858,
      "èĤ²": 2859,
      "åı³è¡ĽéĸĢ": 2860,
      "åĽł": 2861,
      "æĻĤãģ«ãģ¯": 2862,
      "ãģĿãģĨãģ§ãģĻ": 2863,
      "ç«ĭæ´¾": 2864,
      "ãĤ£": 2865,
      "ãĤ°": 2866,
      "æĦļ": 2867,
      "ä¿Ŀãģ¯": 2868,
      "çħĻ": 2869,
      "ãģªãģ«": 2870,
      "ãģĤãģ¤ãģŁ": 2871,
      "ãģ®è«": 2872,
      "åį´": 2873,
      "çĦ¼": 2874,
      "æĺ¥": 2875,
      "ãģ®æĸĩ": 2876,
      "èģŀãģĭ": 2877,
      "å¤ĸãģ«": 2878,
      "åįĬåĪĨ": 2879,
      "ãģªãģĳãĤĮãģ°ãģªãĤīãģªãģĦ": 2880,
      "ç§Ģãģ¡ãĤĥãĤĵ": 2881,
      "ħåŃĲ": 2882,
      "å°Ĭ": 2883,
      "è¾º": 2884,
      "åĮħ": 2885,
      "ãģĿãĤĵãģªãģ«": 2886,
      "çĶ°èĪİ": 2887,
      "ãģįãģªãĤĬ": 2888,
      "éĹĩ": 2889,
      "ãģķãģªãģĦ": 2890,
      "ãģĪãģļ": 2891,
      "ãģįãģªãģĮãĤī": 2892,
      "ãģ©ãģĨãģĹãģŁ": 2893,
      "èĭ±": 2894,
      "é¼ł": 2895,
      "ä¸īåįĥä»£ãģ¯": 2896,
      "è²ŀåĽº": 2897,
      "µ¤": 2898,
      "ãģ¦ãģŁ": 2899,
      "ãģ¤ãģĳ": 2900,
      "ãģ®åĨħ": 2901,
      "ªĵ": 2902,
      "ãģ£ãģıãĤĬ": 2903,
      "ãģĴãĤĭ": 2904,
      "ãģłãģĳãģ§": 2905,
      "ãĤĴè¨Ģ": 2906,
      "ãģ®å¢ĵ": 2907,
      "ķı": 2908,
      "ãģ®ãģĤ": 2909,
      "ãģ¨ãģ¦ãĤĤ": 2910,
      "ä¸Ģçķª": 2911,
      "ãģĿãĤĮãģĺãĤĥ": 2912,
      "å¿ł": 2913,
      "ãĤĴèµ·": 2914,
      "è©±ãģĹ": 2915,
      "ãģ°ãģĭãĤĬãģ§": 2916,
      "ãģĦãĤĪãģĦãĤĪ": 2917,
      "éĪ´æľ¨": 2918,
      "åĹ": 2919,
      "ãģªãĤĤãģ®": 2920,
      "è¦ĭãģĪãģŁ": 2921,
      "èĭ¥ãģĦ": 2922,
      "æİ¢åģµ": 2923,
      "å¼¾": 2924,
      "ãģĹãģ¾ãģĦãģ¾ãģĹãģŁ": 2925,
      "å®Łãģ«": 2926,
      "åħµåįģ": 2927,
      "ãģ«éģİãģİ": 2928,
      "ãģĿãģĵãģ¸": 2929,
      "ãģŁãģıãģķãĤĵ": 2930,
      "å¼ĺåīį": 2931,
      "éĳ": 2932,
      "ãģ±": 2933,
      "ãģ«å½ĵ": 2934,
      "ãģ¨ãģªãģ£ãģŁ": 2935,
      "ãģıãģªãģĦ": 2936,
      "ãĤĴæ±": 2937,
      "æīķ": 2938,
      "ãĤıãģŁ": 2939,
      "æĢĿãģĨ": 2940,
      "ãģ«è©±": 2941,
      "ãģĿãģ®ãģ¾ãģ¾": 2942,
      "åłª": 2943,
      "ãģ®åīįãģ«": 2944,
      "åĵ¡": 2945,
      "ĥ³": 2946,
      "ãģĹãĤī": 2947,
      "ä¸īå¹´": 2948,
      "æĺ¼": 2949,
      "ãģ®ä¸ŃãģĭãĤī": 2950,
      "ãĤ¹ãĥĪ": 2951,
      "æĻ®éĢļ": 2952,
      "éŁ³ãģĮ": 2953,
      "æĥ³åĥı": 2954,
      "åįĴæ¥Ń": 2955,
      "ãģ®æ±": 2956,
      "åĭĩ": 2957,
      "ä¸Ńãģ§": 2958,
      "åħ¥ãĤĮãģ¦": 2959,
      "éłŃãĤĴ": 2960,
      "åĭĿä¹ħ": 2961,
      "æ¸ĭæ±Łæ°ı": 2962,
      "æĵ": 2963,
      "èĺ": 2964,
      "é¬": 2965,
      "ãģ¨ãģª": 2966,
      "ãģĦãģŁãģĦ": 2967,
      "ãģĽãģļ": 2968,
      "å°±": 2969,
      "å¯¿": 2970,
      "æĢĿãĤıãģļ": 2971,
      "ãģ®ãģ»": 2972,
      "ãģ®æĺ": 2973,
      "å°º": 2974,
      "å¯Į": 2975,
      "ãģ«æ¥µ": 2976,
      "ãĤ¤ãĤª": 2977,
      "ãģ®æľ¬": 2978,
      "è¬Ĥ": 2979,
      "ãĤ´": 2980,
      "ãģ®æģ": 2981,
      "ãĤĦãģ£ãģ¨": 2982,
      "ãģŃãģ¦": 2983,
      "æīĢãģĮ": 2984,
      "å»º": 2985,
      "ä¸ĸçķĮ": 2986,
      "ãģ®è¡Į": 2987,
      "å¤ªéĥİ": 2988,
      "æ³¢è¶Ĭ": 2989,
      "ãĤĤãģ¾ãģŁ": 2990,
      "ãģĨãģŁ": 2991,
      "ç£": 2992,
      "ļĹ": 2993,
      "ãģ¤ãģ¤": 2994,
      "ãģ®è²": 2995,
      "ãģ£ãģ½": 2996,
      "è«¸æĪ¸ãģ¯": 2997,
      "§åĺ": 2998,
      "éİ": 2999,
      "ãģĭãĤįãģĨ": 3000,
      "å¤ı": 3001,
      "æĻĤåĪĨ": 3002,
      "ãģ®å¥¥": 3003,
      "æķĻå¸«": 3004,
      "éĤ£": 3005,
      "å¯ĴæľĪåĲĽ": 3006,
      "ãģ«ãĤĪãĤĭãģ¨": 3007,
      "å¨ģ": 3008,
      "æī¿çŁ¥": 3009,
      "åıĶçĪ¶": 3010,
      "ãģĿãģ®å¾Į": 3011,
      "§åĺ©": 3012,
      "¶Ī": 3013,
      "ãģĦãģĳãģªãģĦ": 3014,
      "ãģ«ä½ı": 3015,
      "ãģĹãģ¿": 3016,
      "ãģłãģª": 3017,
      "åı²": 3018,
      "ãģ®èħ": 3019,
      "åĬ´": 3020,
      "éģİãģİãĤĭ": 3021,
      "åħ¼": 3022,
      "ãģĳãģ°": 3023,
      "éģį": 3024,
      "ãģ«æ®": 3025,
      "ãģĿãģĨãģ¨": 3026,
      "ãģ®ãģ§ãģĻãģĮ": 3027,
      "åĲĪãģĽ": 3028,
      "æĽ¸æĸİ": 3029,
      "ãģ®å¦»": 3030,
      "çĬ¯": 3031,
      "åĮ»èĢħ": 3032,
      "èŃ¦å¯Ł": 3033,
      "ãģ®æŃ»": 3034,
      "ãģ¯å¤§": 3035,
      "ãģ¨èģŀãģĦãģŁ": 3036,
      "ãĤĴä½¿": 3037,
      "ãģ¸ãģŁ": 3038,
      "çĻĸ": 3039,
      "çīĽ": 3040,
      "ç´Ģ": 3041,
      "èŃ·": 3042,
      "èī²ãĢħ": 3043,
      "ä¿¡ãģĺ": 3044,
      "æ£®": 3045,
      "ãĤĴä¸İ": 3046,
      "ãģ«æĮ": 3047,
      "åĳĤ": 3048,
      "ãģĪãģ¦ãģĦãģŁ": 3049,
      "ãĤģãģ¦ãģĦãĤĭ": 3050,
      "åł´åĲĪ": 3051,
      "åĻ¨": 3052,
      "ãĤĵãģ¾ãĤĬ": 3053,
      "ãģłãģĦ": 3054,
      "ãģĳãģ¦ãģĦãĤĭ": 3055,
      "èĪŁ": 3056,
      "è¿ĶäºĭãĤĴ": 3057,
      "å¾ħãģ¡": 3058,
      "ãģĮãĤĭ": 3059,
      "ãģĮãģ£ãģ¦": 3060,
      "ãģ®çĹħ": 3061,
      "å°»": 3062,
      "ä¾¡": 3063,
      "ç´°åĲĽãģ¯": 3064,
      "èĶŃ": 3065,
      "çħ§": 3066,
      "ç¹Ķ": 3067,
      "ä»¤å¬¢": 3068,
      "ãģªãĤĵãģ§ãģĻ": 3069,
      "ãģĹãģŁãģ®ãģ¯": 3070,
      "åħį": 3071,
      "è¿½": 3072,
      "åĽĽå¹´": 3073,
      "å°ıä¾Ľ": 3074,
      "ãģ®é«ĺ": 3075,
      "èĵ": 3076,
      "ĹãĤĭ": 3077,
      "ãģĦãģ¾ãģĽãĤĵ": 3078,
      "å¾©": 3079,
      "ãĤĦãģ£ãģŁ": 3080,
      "ãģ®èī²": 3081,
      "å±Ģ": 3082,
      "ãģ«è²": 3083,
      "ãĤĵãģłãĤĪ": 3084,
      "åĭĺ": 3085,
      "ãĤ¤ãĤªãĥªãĥ³": 3086,
      "ãģ¸è¡Įãģı": 3087,
      "ãģ¨äºĳãģ¤ãģŁ": 3088,
      "ãģ§ãĤĤãģªãģĦ": 3089,
      "éłĺ": 3090,
      "çľº": 3091,
      "ãģ®éĸĢ": 3092,
      "ãģĦãģĦãģĪ": 3093,
      "æģĲãĤįãģĹãģĦ": 3094,
      "ļ®": 3095,
      "ãģĦãģ£ãģ¦": 3096,
      "ãģ®é¼": 3097,
      "ãģ®èĤ": 3098,
      "æµľ": 3099,
      "åģī": 3100,
      "è¿ĳéłĥ": 3101,
      "ãĢģâĢķâĢķ": 3102,
      "ãĤĴå¤±": 3103,
      "ãģĹãģ¦ãĤĲãĤĭ": 3104,
      "ãģĹãģŁãĤĬ": 3105,
      "åıĮ": 3106,
      "å®³": 3107,
      "å°Ħ": 3108,
      "çĶŁæ´»": 3109,
      "æĪ»": 3110,
      "Ĭä¸ĭ": 3111,
      "ãģĻãģ£ãģĭãĤĬ": 3112,
      "ãģįãģŁ": 3113,
      "ãĤĪãģĨãĤĦãģı": 3114,
      "éł¬": 3115,
      "ãģ§ãģĻãģĮ": 3116,
      "çŁ¥ãĤīãģªãģĦ": 3117,
      "æ®Ĩ": 3118,
      "ãģ®éĸ¢": 3119,
      "ç®±": 3120,
      "åĲ¹ãģį": 3121,
      "ãģ®éĩĳ": 3122,
      "ãģ¯ãģĤ": 3123,
      "ãģ®æ´": 3124,
      "ãģ®æĢĿ": 3125,
      "éĩ£": 3126,
      "æĺŁ": 3127,
      "åĢī": 3128,
      "é«ĺãģı": 3129,
      "æ¼¢": 3130,
      "å¼·ãģĦ": 3131,
      "ãģ®éģĭ": 3132,
      "¬Ľ": 3133,
      "éĨ": 3134,
      "ãģĮåĩºãģ¦": 3135,
      "ãģĤãĤĭãģ¾ãģĦ": 3136,
      "ãģ¾ãģĻãģ¨": 3137,
      "çĶ³ãģĹ": 3138,
      "æĴĥ": 3139,
      "ãģ®åľ°": 3140,
      "·±": 3141,
      "ãģĭãĤĮãģŁ": 3142,
      "æĹ¨": 3143,
      "ãģ©ãģĨãģĽ": 3144,
      "ä¸įäºĮ": 3145,
      "å¸°ãĤĬ": 3146,
      "åŁİ": 3147,
      "éĳĳ": 3148,
      "ãģĦãģįãģªãĤĬ": 3149,
      "ãģ¸æĿ¥ãģ¦": 3150,
      "äºĳãģĦ": 3151,
      "ãģķãĤĵãģ«": 3152,
      "ãģ¯æ¯": 3153,
      "æłĦ": 3154,
      "è©±ãĤĴ": 3155,
      "ãģıãģ¦": 3156,
      "ä½µ": 3157,
      "åĪĨãģ£ãģŁ": 3158,
      "åºľ": 3159,
      "èĪĪ": 3160,
      "ãģ®åŃ¦": 3161,
      "çĥĪ": 3162,
      "å®¹æĺĵ": 3163,
      "ãĤīãģĹãģ¦": 3164,
      "çĶĺ": 3165,
      "çĶļ": 3166,
      "ãĤĭãģ¨ãģĵãĤį": 3167,
      "ãģ®å®¤": 3168,
      "ãģĿãģĵãģ«": 3169,
      "éħĶ": 3170,
      "ãĥĥãĤ¯": 3171,
      "ãģ®æľ¨": 3172,
      "ãĥĿ": 3173,
      "ãģĿãĤį": 3174,
      "åĸ§åĺ©": 3175,
      "å¹³çĶŁ": 3176,
      "ç·Ĵ": 3177,
      "ãģ®åħī": 3178,
      "ä¸ĪäºĶéĥİ": 3179,
      "åĵĢ": 3180,
      "ãĤĴèģŀãģĦãģŁ": 3181,
      "åĲīãģ¡ãĤĥãĤĵ": 3182,
      "¤ãĤĤ": 3183,
      "åĪº": 3184,
      "æľº": 3185,
      "ãģĬçĪ¶": 3186,
      "çĽĽ": 3187,
      "éĤ¸": 3188,
      "è¢ĭ": 3189,
      "ãģ«è¿ĳ": 3190,
      "ãĤŀ": 3191,
      "ãģĦãģ¡": 3192,
      "ãĤĴåĲĳ": 3193,
      "ä¸Ģç¨®": 3194,
      "ãģ¸ãģ¯": 3195,
      "æµ®": 3196,
      "åķĨ": 3197,
      "èµ¤ãģĦ": 3198,
      "ãģ®éģĵ": 3199,
      "æļĹãģĦ": 3200,
      "å¨ĺ": 3201,
      "ãģ®å§¿": 3202,
      "ãģłãģ®": 3203,
      "ãģĻãĤĭãģĵãģ¨": 3204,
      "ãģ®ãģĭãģĦ": 3205,
      "æ¯İæĹ¥": 3206,
      "ãģ®è£ı": 3207,
      "ãĤ®": 3208,
      "ãģ«éģ": 3209,
      "ãĥĬ": 3210,
      "ãģ®è¥": 3211,
      "éĸĵãĤĤãģªãģı": 3212,
      "çī¹": 3213,
      "éĻµ": 3214,
      "ãģĿãģ®æĹ¥": 3215,
      "ãģ®æīĭç´Ļ": 3216,
      "å¡Ĺ": 3217,
      "çłĤ": 3218,
      "çĹħæ°Ĺ": 3219,
      "åį³ãģ¡": 3220,
      "ãĤĬãĤĴ": 3221,
      "ä¸ĢæĹ¥": 3222,
      "ãĤĴæķ": 3223,
      "ãģĽãĤīãĤĮãģ¦": 3224,
      "ãģ®èĢĥ": 3225,
      "ãģ¿ãģ¾ãģĹãģŁ": 3226,
      "ãģªãĤīãģ°": 3227,
      "ãĤĢãģļ": 3228,
      "æ¬²": 3229,
      "çĭ¬ä»Ļ": 3230,
      "è±Ĭ": 3231,
      "åħ±ãģ«": 3232,
      "ãĥ´ãĤ¡ãĤ¤ãĤªãĥªãĥ³": 3233,
      "ãģªãģĹ": 3234,
      "ãĤĴåĢŁ": 3235,
      "ãĥ¥": 3236,
      "ãĥĮ": 3237,
      "ãĤĬãģŁ": 3238,
      "ãģ¸ãģĪ": 3239,
      "æĸ¼": 3240,
      "ä¸Ĭãģ£ãģ¦": 3241,
      "çľĮ": 3242,
      "åĪĿãĤģ": 3243,
      "æĺ¯éĿŀ": 3244,
      "æ³¨æĦı": 3245,
      "ç°¡": 3246,
      "ãĤĴåĩº": 3247,
      "ãģĮåĩºæĿ¥": 3248,
      "ãģĵãĤĮãģ§": 3249,
      "ãģĦãģ¤ãģ¯": 3250,
      "çļĦãģª": 3251,
      "ãĤ½": 3252,
      "ãģĭãģĳ": 3253,
      "ãģķãģĽãģŁ": 3254,
      "åĲĲ": 3255,
      "ãģ®çµĲ": 3256,
      "å°Ĥ": 3257,
      "ãģ¿ãĤĭãģ¨": 3258,
      "ãģ¶ãĤĭ": 3259,
      "ãģĦãģª": 3260,
      "å¯Ĳ": 3261,
      "ãģ«ç´": 3262,
      "ãģ«çĿĢ": 3263,
      "éĿ¢åĢĴ": 3264,
      "æĮģãģ¡": 3265,
      "åıĭéģĶ": 3266,
      "ãģĨãģĹãĤį": 3267,
      "ãĥ¢": 3268,
      "åŃ¦èĢħ": 3269,
      "ä»ĺãģĦãģ¦": 3270,
      "åĪ¥æ®µ": 3271,
      "è·¡": 3272,
      "æ»ħ": 3273,
      "ãģĭãĤīãģŃ": 3274,
      "ãģįãģ¯": 3275,
      "éĢŁ": 3276,
      "éĸĵéģķ": 3277,
      "ç¨½": 3278,
      "ãģ£ãģįãĤĬ": 3279,
      "ç±į": 3280,
      "éĺ¿": 3281,
      "æ¦": 3282,
      "ãĤĴä½ľ": 3283,
      "çĶ²": 3284,
      "åį°": 3285,
      "ãĤıãģĹ": 3286,
      "åĪĨãĤĭ": 3287,
      "ãĤĵãģłãĤįãģĨ": 3288,
      "çī©ãģ¯": 3289,
      "è¬Ľ": 3290,
      "ãĤıãģĸãģ¨": 3291,
      "ĥ³åĥı": 3292,
      "ç§ģãģ®": 3293,
      "ãģ¸ãģ¨": 3294,
      "ãģ¸åĩºãģŁ": 3295,
      "ãģ®èĳ": 3296,
      "ãģŃãģ°": 3297,
      "åĳī": 3298,
      "æ±Ĥ": 3299,
      "ãģªãģĭãĤįãģĨ": 3300,
      "èħķ": 3301,
      "ãĤıãģĸãĤıãģĸ": 3302,
      "ı¾": 3303,
      "ãģ«å¾Ģ": 3304,
      "ãģªãģ®ãģ§": 3305,
      "ãģ¾ãģªãģĦ": 3306,
      "ãĤĴç¶": 3307,
      "ãĤĴç½®": 3308,
      "çķ¥": 3309,
      "æĬ½æĸİãģĮ": 3310,
      "ä¸Ģäººãģ§": 3311,
      "åĿĤ": 3312,
      "å¹³å²¡ãģ¯": 3313,
      "æ»ĳ": 3314,
      "éļıåĪĨ": 3315,
      "ãģ®éĸ¢ä¿Ĥ": 3316,
      "ãģĿãģ®ä¸Ĭ": 3317,
      "ä½ķãģĮ": 3318,
      "èĩªçĶ±": 3319,
      "éĻ¤": 3320,
      "ãģİãĤĬ": 3321,
      "çıį": 3322,
      "éī¢": 3323,
      "éĿŀå¸¸ãģ«": 3324,
      "éį": 3325,
      "ãĤĤãģªãģĭãģ£ãģŁ": 3326,
      "ãģĤãĤĵãģ¾ãĤĬ": 3327,
      "ãģĵãģ®éĸĵ": 3328,
      "ãģ£ãģŁãģĮ": 3329,
      "ãģķãģĽ": 3330,
      "ãģ¤ãģĳãģŁ": 3331,
      "ãģ¨ãģĦãģµ": 3332,
      "ãģ«è¶³": 3333,
      "ãģĹãģ¾ãģĦ": 3334,
      "ç¾İãģĹãģĦ": 3335,
      "è±¡": 3336,
      "ä¸İæ¬¡éĥİãģ¯": 3337,
      "çįĦ": 3338,
      "ãģ¯ãģªãģĭãģ£ãģŁ": 3339,
      "ãĤĴå¼ķãģį": 3340,
      "ãģĮãģĹãģŁ": 3341,
      "æĸ¯": 3342,
      "ãĤĴæ¸": 3343,
      "ãģ®çĦ": 3344,
      "ãģ«èĲ½ãģ¡": 3345,
      "ãģĤãĤĬãģĮ": 3346,
      "ä»¥ä¸Ĭãģ¯": 3347,
      "µģ": 3348,
      "ãģ«ä¼¼": 3349,
      "ãģ«æ¯": 3350,
      "å¤§æĬµ": 3351,
      "åħĪåĪ»": 3352,
      "åĥķãĤĤ": 3353,
      "ãĤĪãĤĬãģ¯": 3354,
      "ä»ĺãģĳãģ¦": 3355,
      "æĶ¹": 3356,
      "æľĢå¾Į": 3357,
      "éĥ½åĲĪ": 3358,
      "ãģĭãĤĤçŁ¥ãĤĮãģ¾ãģĽãĤĵ": 3359,
      "ãģ®ç©º": 3360,
      "ãģ«éģķ": 3361,
      "ãĤĴåıĸãĤĬ": 3362,
      "äººãĤĤ": 3363,
      "æ°ĳ": 3364,
      "æļ«": 3365,
      "ãģ¨ãģĵãĤįãģ§": 3366,
      "ãĤĴè¨ª": 3367,
      "æĺ¨æĹ¥": 3368,
      "æ½": 3369,
      "ãĤĬãģ¯": 3370,
      "ãģıãģª": 3371,
      "ãģ®å¨": 3372,
      "ãģ®åģ": 3373,
      "ãģĹãģ¦ãģĬ": 3374,
      "ãģ®ãģ§ãģĤãģ£ãģŁ": 3375,
      "åŃĲãģ«": 3376,
      "ãĤĮãģ¦ãģĦãģŁ": 3377,
      "ãģĵãĤĮãĤĤ": 3378,
      "éĻ°": 3379,
      "ãģĦãģ¤ãģ§ãĤĤ": 3380,
      "ãģ«ãģĹãģ¦ãĤĤ": 3381,
      "åĺĺ": 3382,
      "çĤºãģ«": 3383,
      "ãĤ§": 3384,
      "ãģ¡ãģ£ãģ¨": 3385,
      "æīį": 3386,
      "ãģ§ãģĤãĤĭãģĭãĤī": 3387,
      "ãĤĴçªģ": 3388,
      "éłĤ": 3389,
      "éłĹãĤĭ": 3390,
      "ä¾¯": 3391,
      "åĮł": 3392,
      "ãģ®æĸ¹ãģ¯": 3393,
      "æ²Ī": 3394,
      "æŃ»ãĤĵãģ§": 3395,
      "åıĹãģĳ": 3396,
      "ãģŁãģ¡ãģ¯": 3397,
      "çł²": 3398,
      "ãĤ¬": 3399,
      "ãģ®è©": 3400,
      "ãģ®ç«": 3401,
      "å¥ī": 3402,
      "æ°Ĺãģ«": 3403,
      "ãĤĵãģłãģ£ãģ¦": 3404,
      "èªĮ": 3405,
      "åĬłæ¸Ľ": 3406,
      "ç¯Ģ": 3407,
      "èķ": 3408,
      "ãģĹãģĭãģ£ãģŁ": 3409,
      "ãģ¨ãģĦãģĨãģĵãģ¨": 3410,
      "ãģªãģıãģ£ãģ¡ãĤĥ": 3411,
      "ãģ©ãģĨãģ§ãģĻ": 3412,
      "æĬ±": 3413,
      "å¾ĹãĤĭ": 3414,
      "ãĤĴæĬ¼": 3415,
      "éŃļ": 3416,
      "æĲį": 3417,
      "é·": 3418,
      "ãģ«ãģĦãģŁ": 3419,
      "ãģ®è¶³": 3420,
      "æµ¦": 3421,
      "ãĥ³ãĥĪ": 3422,
      "ãģ«ç«ĭãģ£ãģ¦": 3423,
      "ãģ®æ°´": 3424,
      "ãģ®æħ": 3425,
      "ãģ®æŀ": 3426,
      "ãģ®èĭ¦": 3427,
      "ãģķãĤĵãģ¨": 3428,
      "çĻ»": 3429,
      "åĭī": 3430,
      "ãģ®ãģ§ãģĻãģĭ": 3431,
      "çī©ãģĮ": 3432,
      "ãĤĢãģĹãĤį": 3433,
      "åĦĢ": 3434,
      "ãģ®åıĭ": 3435,
      "åĩ¡ãģ¦": 3436,
      "ģ«": 3437,
      "ãĤĭãģ¹ãģį": 3438,
      "ãģĹãģŁæĻĤ": 3439,
      "åħģ": 3440,
      "åħĲ": 3441,
      "äºĭãģł": 3442,
      "èĪĮ": 3443,
      "å£°ãĤĴ": 3444,
      "ãģªãģ©ãģ¨": 3445,
      "æ´¥è»½": 3446,
      "æŁ³": 3447,
      "çĳ": 3448,
      "ãģ®æĮ": 3449,
      "ãģ«æĮģ": 3450,
      "ãģ§ãģĤãĤĭãģĮ": 3451,
      "åħĪãģļ": 3452,
      "æĸ¹ãģ¯": 3453,
      "ãģ¯æ®": 3454,
      "è¶£": 3455,
      "ãģ®äºĭãĤĴ": 3456,
      "äººéĸĵãģ¯": 3457,
      "æŁ»": 3458,
      "ãģ²ãģ©ãģĦ": 3459,
      "ĳãģĨ": 3460,
      "Ľ²": 3461,
      "ãģ¯ãģ¾ãģł": 3462,
      "ãģĮãģŃ": 3463,
      "ãĤĮãģ¬": 3464,
      "ãģ¾ãĤı": 3465,
      "ãģ®æİ": 3466,
      "ãģķãĤī": 3467,
      "ãģ®çªĵ": 3468,
      "é¡į": 3469,
      "åŃ¦çĶŁ": 3470,
      "å°ıãģķãģĦ": 3471,
      "èĭ¥ãģĹ": 3472,
      "éĭ": 3473,
      "ãĤ¶": 3474,
      "ãģĿãģ®ä¸Ń": 3475,
      "ãĤĦãģĭ": 3476,
      "å°¤ãĤĤ": 3477,
      "åĭ§": 3478,
      "çľĭ": 3479,
      "çµµ": 3480,
      "æĥľ": 3481,
      "ãģªãĤĭãģ¹ãģı": 3482,
      "åħ¨ä½ĵ": 3483,
      "æ¶Ļ": 3484,
      "ãģ®å·Ŀ": 3485,
      "ãģ®åĬĽ": 3486,
      "¸ģ": 3487,
      "äººãģ§": 3488,
      "æĻĤè¨Ī": 3489,
      "ãģªãĤīãģļ": 3490,
      "ãĤĤãģĨå°ĳãģĹ": 3491,
      "ãģ¨äºĳãģĨãģ¨": 3492,
      "åĭķãģĭ": 3493,
      "æĻ¯": 3494,
      "æħĭ": 3495,
      "ç§ģéģĶãģ¯": 3496,
      "çĵ¶": 3497,
      "ãģ®èĬ±": 3498,
      "åħħåĪĨ": 3499,
      "¾º": 3500,
      "ãģĮä½ķ": 3501,
      "è¡Ĩ": 3502,
      "äºĮåº¦": 3503,
      "ä¸Ĭãģ«": 3504,
      "é¡§": 3505,
      "æģ¥": 3506,
      "ãģ«æĿ¥ãģŁ": 3507,
      "ãģĭãģĳãģ¦": 3508,
      "ãģĮãģĦ": 3509,
      "ãģĹãģŁãģ®ãģ§ãģĤãĤĭ": 3510,
      "ãģ¸ãģ¦": 3511,
      "ãģĿãĤĮãĤĤ": 3512,
      "å±¤": 3513,
      "åīįãģĭãĤī": 3514,
      "çŃĸ": 3515,
      "è¼ĥ": 3516,
      "çĽ¸è«ĩ": 3517,
      "ç«ł": 3518,
      "çŃĶãģĪãģŁ": 3519,
      "æľĢåĪĿ": 3520,
      "ãĢģãĢİ": 3521,
      "ãģĹãģ¾ãģĽãĤĵ": 3522,
      "ãģ¨ãģĮ": 3523,
      "ãģĭãģ¤ãģ¦": 3524,
      "åĩĿ": 3525,
      "ãģĻãĤĭãģ«": 3526,
      "éĸī": 3527,
      "ãģ«èµ·": 3528,
      "ãģ®ãģĭãģ¨": 3529,
      "çªŁ": 3530,
      "åĨħãģ«": 3531,
      "¥²": 3532,
      "ãģĦåĩºãģĹãģŁ": 3533,
      "ãģĹãĤĤ": 3534,
      "ãĤĴæľī": 3535,
      "ãģĤãĤĭãģĮ": 3536,
      "ãģ¸è¡Į": 3537,
      "ãģĻãĤĭãģ®ãģ¯": 3538,
      "å£ģ": 3539,
      "çµĲæŀľ": 3540,
      "ãĤĴæİ¢": 3541,
      "ãĤĴæĮĻ": 3542,
      "ãģ®çĤºãģ«": 3543,
      "åĪ°åºķ": 3544,
      "ãģŁãģ³": 3545,
      "ãĥ¨": 3546,
      "ãģ¤ãģ¥": 3547,
      "ãģ©ãģĵãĤį": 3548,
      "å¾´": 3549,
      "ãĤĴæ´": 3550,
      "æİ¨": 3551,
      "å»Ĭä¸ĭ": 3552,
      "æŃ¤æĸ¹": 3553,
      "äºĶçĻ¾ãģĮ": 3554,
      "æ¼Ķ": 3555,
      "éľĩ": 3556,
      "æĩĲ": 3557,
      "ãĥīãĤ¢": 3558,
      "ãģ²ãģ¨ãĤĬ": 3559,
      "éĢĥãģĴ": 3560,
      "¸ãĤĴ": 3561,
      "ãĤĭãģ®ãģ¯": 3562,
      "ãĤĴéģ": 3563,
      "ãģ£ãģ¦ãģĬ": 3564,
      "ãģ®æł": 3565,
      "åı©": 3566,
      "ãĤĦãĤįãģĨ": 3567,
      "å¯Ľ": 3568,
      "è¨ª": 3569,
      "çµĦ": 3570,
      "çĽ®ãģ«": 3571,
      "ãĤĤãģĨä¸Ģ": 3572,
      "åĩºæĿ¥ãģªãģĭãģ£ãģŁ": 3573,
      "ãĤĪãģĨãģªæ°ĹãģĮ": 3574,
      "ä¿¡ãģĺãģ¦": 3575,
      "ãģªãĤĬãģ¾ãģĹãģŁ": 3576,
      "å«Ĥ": 3577,
      "ãģ«è¦ĭãģĪãĤĭ": 3578,
      "ãĤĴçĿĢãģ¦": 3579,
      "èŁ": 3580,
      "ãģ¯ãģª": 3581,
      "ãĤĪãģ»ãģ©": 3582,
      "ãģĶãĤį": 3583,
      "éļĬ": 3584,
      "éķ·ãģı": 3585,
      "çµĲæ§ĭ": 3586,
      "ãĤĴæĬľ": 3587,
      "ãģ®è¡¨": 3588,
      "æ²¢å±±": 3589,
      "ãģªãģ®ãģ§ãģĻ": 3590,
      "ãģįãĤĮ": 3591,
      "ãģ©ãģĨãģĻãĤĭ": 3592,
      "åĲįåīį": 3593,
      "èĻ«": 3594,
      "ãģ®éĿĴ": 3595,
      "åħģæĪĲ": 3596,
      "è´": 3597,
      "ĲĨ": 3598,
      "Ļ©": 3599,
      "ãģĭãģ¨æĢĿãģĨãģ¨": 3600,
      "ãģ®åł´": 3601,
      "å¿½": 3602,
      "åĬŁ": 3603,
      "å¿ĥå¾Ĺ": 3604,
      "å®¶ãģ¯": 3605,
      "ç¾ħ": 3606,
      "å½ĵãĤĬ": 3607,
      "ãĤĴæĮĩ": 3608,
      "éĽ»è»Ĭ": 3609,
      "ãģ®é¼»": 3610,
      "ãģĦãĤīãĤĮ": 3611,
      "ãĤĭãģ¾ãģ§": 3612,
      "ãĤĪãĤį": 3613,
      "åĪĢ": 3614,
      "ãģįåĩºãģĹãģŁ": 3615,
      "ãģĽãģ¬": 3616,
      "éģħ": 3617,
      "äºĳãģ¤ãģŁ": 3618,
      "ä¸ĭãģķ": 3619,
      "é¢¨åĳĤ": 3620,
      "æŃ©ãģĦãģ¦": 3621,
      "ãģ®è¨ĺ": 3622,
      "éº¦": 3623,
      "åŁ·": 3624,
      "é©ļãĤįãģĦãģŁ": 3625,
      "ãģĨãģª": 3626,
      "ãģĻãģį": 3627,
      "ãģĤãĤĭãģĦãģ¯": 3628,
      "ãģ®ãģ§ãģĤãĤįãģĨ": 3629,
      "ç¾¤": 3630,
      "åĸ°": 3631,
      "è¾¼ãģ¿": 3632,
      "åģ¶": 3633,
      "ç¹°ãĤĬè¿Ķ": 3634,
      "ãĤĴåıĹãģĳãģŁ": 3635,
      "åĭīå¼·": 3636,
      "Ĺè«ĩ": 3637,
      "ãģĻãģ§": 3638,
      "ãģķãģĽãģ¦": 3639,
      "åİ³": 3640,
      "ãģ®äºĭä»¶": 3641,
      "ãģĦãģ¤ãģĭ": 3642,
      "ç·ı": 3643,
      "çĬ¬": 3644,
      "åı«ãģ³": 3645,
      "ãģ®ç¬¬": 3646,
      "ä¸įäºĮåŃĲ": 3647,
      "ãģ«è¡Į": 3648,
      "ãģ¤ãģ¾": 3649,
      "éģº": 3650,
      "ãĤĴè©": 3651,
      "ãĤĴç©": 3652,
      "ãģ«ç¬": 3653,
      "æīĢãģ¯": 3654,
      "åĤ¾": 3655,
      "æ¨Ļ": 3656,
      "ãģ«ç«ĭãģ¡": 3657,
      "ãģ¨çŃĶãģĪãģŁ": 3658,
      "å¸½åŃĲ": 3659,
      "ãģ¯æ±ºãģĹãģ¦": 3660,
      "ãĤĴçĶŁ": 3661,
      "ãģķãĤĵãĤĤ": 3662,
      "ãģĵãģ¨ãģĮãģĤãĤĭ": 3663,
      "ä¸Ĭãģ£ãģŁ": 3664,
      "ãģĵãĤĮãģ«": 3665,
      "ä¹³": 3666,
      "å¥½ãģį": 3667,
      "å¤ļå°ĳ": 3668,
      "è³ªåķı": 3669,
      "ãĤ«ãĥłãĥĳãĥįãĥ«ãĥ©ãģĮ": 3670,
      "Ĥ²": 3671,
      "ĹãĤĴ": 3672,
      "ãģªãģ®ãģł": 3673,
      "ãģįãĤī": 3674,
      "ãĤıãģĳ": 3675,
      "ãģªãģıãģªãģ£ãģ¦": 3676,
      "è¦ļæĤŁ": 3677,
      "ãĤĤãģ®ãģ§ãģĤãģ£ãģŁ": 3678,
      "çĥŁ": 3679,
      "ãģ«è¨Ģ": 3680,
      "ãĤīãĤĮãģªãģĦ": 3681,
      "ãĤĤãģ¨": 3682,
      "ãģķãģĻãģĮ": 3683,
      "ãģ®é£": 3684,
      "ãģ®ç³": 3685,
      "åįĵ": 3686,
      "ãĤıãģ¬": 3687,
      "æĹ§": 3688,
      "çĽ£": 3689,
      "æ°ĹãĤĴ": 3690,
      "ãģĿãģĨãģĦãģĨ": 3691,
      "è¿°": 3692,
      "ãģ«çŃĶ": 3693,
      "çŃĭ": 3694,
      "è©¦": 3695,
      "ãģ»ãģĭ": 3696,
      "çľ¼ãģĮ": 3697,
      "èµ·ãģ£ãģŁ": 3698,
      "åºĥãģĦ": 3699,
      "æ¿Ģ": 3700,
      "ãģ®èĥ¸": 3701,
      "æª": 3702,
      "ãģ®æķ": 3703,
      "äºĭãģĮãģªãģĦ": 3704,
      "ãĤĤãģ®ãģĮãģĤãĤĭ": 3705,
      "æīĭãģ§": 3706,
      "çŁ¥ãĤīãĤĵ": 3707,
      "ãģ¹ãģĭãĤī": 3708,
      "æľĪãģ«": 3709,
      "åħŃåįģ": 3710,
      "å±ħãĤĭ": 3711,
      "å¥ĩéºĹ": 3712,
      "ä¸įæĢĿèŃ°ãģª": 3713,
      "æ±ºå¿ĥ": 3714,
      "ãĤīãģ¯": 3715,
      "ãĤĤãĤĵãģł": 3716,
      "ãģĭãĤīãģĭ": 3717,
      "ãģķãģ«": 3718,
      "ãģįãģ«": 3719,
      "éģĩ": 3720,
      "ãģ¨æĢĿãģĦãģ¾ãģĹãģŁ": 3721,
      "ä»ĺãģĳãģŁ": 3722,
      "ãģ®éĸĵãģ«ãģĭ": 3723,
      "å¾ħãģ£ãģ¦": 3724,
      "ħãģ«": 3725,
      "ãģ§ãģĶãģĸãģĦãģ¾ãģĻ": 3726,
      "ãģ¾ãģķãģĭ": 3727,
      "ãģĻãģ¹ãģ¦": 3728,
      "ãģ®è»": 3729,
      "å¥®": 3730,
      "ãģ¨äºĳãģĦãģªãģĮãĤī": 3731,
      "ãģ«çī": 3732,
      "èĩªåĪĨãģ®": 3733,
      "ä¼ı": 3734,
      "ãģĲãĤīãģĦ": 3735,
      "ç¬ĳãģĦãģªãģĮãĤī": 3736,
      "å§ĭçµĤ": 3737,
      "æŃ£çĽ´": 3738,
      "ãģĤãĤĮãģ¯": 3739,
      "çĶŁãģįãģ¦": 3740,
      "ãģ«ãģ¨ãģ£ãģ¦": 3741,
      "ãģĦãģĪ": 3742,
      "ãĥ¯": 3743,
      "ãģ©ãģ£ãģ¡": 3744,
      "æľŃ": 3745,
      "ãģĽãĤīãĤĮ": 3746,
      "æŃ¯": 3747,
      "åħĥæĿ¥": 3748,
      "åĦĺ": 3749,
      "åİŁåı£": 3750,
      "ãģ¿ãģŁãģĦãģª": 3751,
      "ä¹ĭåĬ©": 3752,
      "ãģĮãģĬ": 3753,
      "ãģĨãģĭ": 3754,
      "ãģ¾ãģ¡": 3755,
      "ãģ¾ãģĦãģĭ": 3756,
      "ãģĤãģŁãĤĬ": 3757,
      "ãģłãģ¨ãģĦãģĨ": 3758,
      "ãģ«æ±": 3759,
      "ãģ«æ³": 3760,
      "åºı": 3761,
      "ãģ¨æĢĿãģĦãģ¾ãģĻ": 3762,
      "ãģĿãģ®äºº": 3763,
      "å¤©ä¿Ŀ": 3764,
      "èª°ãģĭ": 3765,
      "å¾ĢæĿ¥": 3766,
      "ãģ®èª¬": 3767,
      "ãģ®çĦ¡": 3768,
      "Ĥ¹": 3769,
      "ĸĦ": 3770,
      "ãģ£ãģŁæĻĤ": 3771,
      "å¿įãģ³": 3772,
      "ãģ«æĭ": 3773,
      "åĭ¿": 3774,
      "ãģªãģıãģªãĤĭ": 3775,
      "çĥı": 3776,
      "åıįå¯¾": 3777,
      "æľ¬å½ĵãģ«": 3778,
      "åįļå£«": 3779,
      "æ³¥æ£Ĵ": 3780,
      "ļãģĦ": 3781,
      "ãģ®ãģ¾ãģ¾": 3782,
      "ãģĦãģ£ãģĹãĤĩ": 3783,
      "ãĤĴéĽ¢": 3784,
      "ãģĪãģªãģĭãģ£ãģŁ": 3785,
      "ãģ¡ãģ¨": 3786,
      "äºĮéļİ": 3787,
      "æĭł": 3788,
      "æ°ıãģ¯": 3789,
      "æľĢãĤĤ": 3790,
      "å¯ĴæľĪåĲĽãģ¯": 3791,
      "ãģĦãĤīãģ£ãģĹãĤĥãĤĭ": 3792,
      "ãģ²ãģ©ãģı": 3793,
      "åĲ¦ãĤĦ": 3794,
      "è¸ı": 3795,
      "éģĤãģ«": 3796,
      "æĳ": 3797,
      "ãĤĴåĬł": 3798,
      "éłĵ": 3799,
      "ãĥĥãĤŃ": 3800,
      "æŁĲ": 3801,
      "ãģ®é»Ĵ": 3802,
      "ãĥĴãĥ©": 3803,
      "ä½µãģĹ": 3804,
      "Į«": 3805,
      "ãĤĵãģĮ": 3806,
      "ãĤĦãĤĦ": 3807,
      "ãĤĴæĺ": 3808,
      "åĲĽãĤĤ": 3809,
      "ãģ¨ãģĦãģĨãĤĤãģ®": 3810,
      "æīĭãģ«": 3811,
      "é£¯ãĤĴ": 3812,
      "åĨĹè«ĩ": 3813,
      "ç«ĭãģ¤": 3814,
      "æħ£": 3815,
      "åĤ·": 3816,
      "ãģ®è¨±": 3817,
      "ãĤĴãģ¤ãģĳãģ¦": 3818,
      "æĨİ": 3819,
      "ãĤĴéĢļãĤĬ": 3820,
      "ãģĤãģŁ": 3821,
      "ãĤĦãģĭãģª": 3822,
      "ä¿º": 3823,
      "å½¼å¥³": 3824,
      "ãģĵãģĨãģĦãģĨ": 3825,
      "ç¥ĸ": 3826,
      "ç½®ãģĦãģŁ": 3827,
      "å·®ãģĹ": 3828,
      "ãģ®åĽĽ": 3829,
      "ç´ĦæĿŁ": 3830,
      "ãģªãģ®": 3831,
      "ãĤĭãĤĭ": 3832,
      "ãģĮæĿ¥ãģŁ": 3833,
      "ãģĵãģ¡ãĤī": 3834,
      "ãģ®æĦŁ": 3835,
      "ãģĭãĤīãĤĤ": 3836,
      "ãģ¤ãģĦãģ«": 3837,
      "ãĤĦåĲ¦ãĤĦ": 3838,
      "åħ¥ãĤĬ": 3839,
      "åĨĬ": 3840,
      "ãģ²ãģĿ": 3841,
      "åı£ãģ«": 3842,
      "æ³ī": 3843,
      "ãģĵãģĨäºĳãģĨ": 3844,
      "èĬĿ": 3845,
      "é§Ī": 3846,
      "ãĤĴæīĭ": 3847,
      "ç±ł": 3848,
      "ãģ®å±±": 3849,
      "ç«ĭæ´¾ãģª": 3850,
      "ãģ®çĶ·": 3851,
      "ãģĦãģ®": 3852,
      "ãģŁãĤŀ": 3853,
      "ãģĿãģ®éłĥ": 3854,
      "ãģ£ãģ¦æĿ¥ãģ¦": 3855,
      "ãģĬãģ¾ãģĪ": 3856,
      "ãģ¨ãģĦãģĦ": 3857,
      "è¿İ": 3858,
      "é£¾": 3859,
      "çŁ¥ãĤī": 3860,
      "ãģ¤ãģ¦ãĤĲãģŁ": 3861,
      "ãģ®å¤©": 3862,
      "æļĩ": 3863,
      "æıĽ": 3864,
      "æĺİæĻºãģ¯": 3865,
      "ãģ®å¨ĺ": 3866,
      "ãģ®æħĭåº¦": 3867,
      "£ãĤĮãģ¦": 3868,
      "ãģ®ãģ¨ãģĵãĤį": 3869,
      "ãģ«éĸ¢": 3870,
      "ãģĹãģ¦ãģĤãĤĭ": 3871,
      "ãģ®æŁ": 3872,
      "åı¬": 3873,
      "è¦ĭãĤĮãģ°": 3874,
      "åĩºãģĹãģ¾ãģĹãģŁ": 3875,
      "ä»Ĭå¤ľ": 3876,
      "è²»": 3877,
      "ãģ¨äºĳãģĨãģ®ãģ¯": 3878,
      "ç¬ĳãģ£ãģŁ": 3879,
      "äº¬æ°´": 3880,
      "æ·ĭ": 3881,
      "ãģĵãģĵãģ¸": 3882,
      "ãģ«è¦ĭãģĪãģŁ": 3883,
      "å¢Ĺ": 3884,
      "ç³¸": 3885,
      "å½¼çŃīãģ¯": 3886,
      "çŁ¢å³¶": 3887,
      "°Ĺ": 3888,
      "ãĤº": 3889,
      "ãģłãĤīãģĨ": 3890,
      "ãĤĪãģĦ": 3891,
      "ä¸Ģè¨Ģ": 3892,
      "çĽĬ": 3893,
      "éĩĿ": 3894,
      "ä¿Ĺ": 3895,
      "ä¸įå®ī": 3896,
      "åĲĪãģĦ": 3897,
      "è²¬": 3898,
      "ãĥ©ãĥ³": 3899,
      "æĮ¯ãĤĬ": 3900,
      "é®": 3901,
      "ãģ£ãģ¦æĿ¥ãĤĭ": 3902,
      "ãģ«ãģªãĤīãģªãģĦ": 3903,
      "ç«ĭãģ£ãģŁ": 3904,
      "æİ¥": 3905,
      "èĢĥãģĪãĤĭ": 3906,
      "çļĦãģ«": 3907,
      "åĪ¥ãģ«": 3908,
      "åĽºãĤĪãĤĬ": 3909,
      "éĻįãĤĬ": 3910,
      "çĶļãģł": 3911,
      "īãģı": 3912,
      "ãģ¾ãĤĵ": 3913,
      "ãģ£ãģŁãģ®ãģ¯": 3914,
      "ãģ«æ²": 3915,
      "ãĤĴç´": 3916,
      "åįģå¹´": 3917,
      "èªį": 3918,
      "äºĶå¹´": 3919,
      "ãģ®æĸ¹ãģ§": 3920,
      "ä»¥æĿ¥": 3921,
      "åĤĻ": 3922,
      "ç¸Ħ": 3923,
      "æ£ļ": 3924,
      "æİĽãģĳãģŁ": 3925,
      "çĸ²": 3926,
      "ä¸İæ¬¡éĥİãģĮ": 3927,
      "åĪ¤çĦ¶": 3928,
      "µ°": 3929,
      "éŀ": 3930,
      "ãģ«å¸°": 3931,
      "ãģ£ãģĵ": 3932,
      "æ°Ĺãģ¯": 3933,
      "æ²¹": 3934,
      "ãģ®ãģĭãĤĤçŁ¥": 3935,
      "æŀĿ": 3936,
      "æ¨©": 3937,
      "ç¸®": 3938,
      "æºĲ": 3939,
      "æĺĶãģĹ": 3940,
      "æĸĻçĲĨ": 3941,
      "æĬ¼ãģĹ": 3942,
      "ãģ§ãģĤãģ¤ãģŁ": 3943,
      "ãĥĩ": 3944,
      "ãģĿãĤĬ": 3945,
      "ãģĿãģ®é": 3946,
      "ãĤĴæĦĽ": 3947,
      "ãĤĴè§£": 3948,
      "å½¼ãģĮ": 3949,
      "äºĶåħŃ": 3950,
      "å¾¡è¦§": 3951,
      "å¥³ãģ®åŃĲ": 3952,
      "è³ĩ": 3953,
      "é¢¨ãģ«": 3954,
      "éģĵéĽĦ": 3955,
      "æ·±ãģĦ": 3956,
      "å¢ĥ": 3957,
      "ãģ¢ãĤĦãģªãģĦ": 3958,
      "ä½İãģĦ": 3959,
      "ãģ®è¦ª": 3960,
      "ãģ®æ²": 3961,
      "éĩı": 3962,
      "ãģ©ãģĨãģ§ãĤĤ": 3963,
      "åħ¥ãĤĮ": 3964,
      "åıĸãģ£ãģŁ": 3965,
      "å»ĥ": 3966,
      "èĤ©": 3967,
      "åħĦãģ¯": 3968,
      "ãģ¨è¦ĭãģĪãĤĭ": 3969,
      "åŃĺãģĺ": 3970,
      "çķĻå®Ī": 3971,
      "ãĤıãĤĭãģĦ": 3972,
      "ãģ»ãĤĵãģ¨ãģĨãģ«": 3973,
      "ãģ®ç¥ŀ": 3974,
      "ãĥĴãĥ©ãĥ¡": 3975,
      "¸ãģı": 3976,
      "çĢ": 3977,
      "ħ°": 3978,
      "Ń¦": 3979,
      "ãģ¨ç§°": 3980,
      "ãģ¤ãģĦãģ§": 3981,
      "ãģĬãģ£ãģĹãĤĥ": 3982,
      "å¿Ļ": 3983,
      "ãĤĴèĦ": 3984,
      "èĩªåĪĨãģ«ãģ¯": 3985,
      "ãģ£ãģ¦ãģĦãĤĭãģ¨": 3986,
      "çĦ¡æļĹ": 3987,
      "åº¦ãģ«": 3988,
      "æ¯įãģ¯": 3989,
      "ãĥªãģ¨": 3990,
      "åīĩ": 3991,
      "è¨ĺæĨ¶": 3992,
      "éª¸": 3993,
      "ç§ĺå¯Ĩ": 3994,
      "èĺŃ": 3995,
      "æļ«ãģı": 3996,
      "ãģŁãģªãģĦ": 3997,
      "ãģ®æĬ": 3998,
      "ãĤģãģ¾ãģĹãģŁ": 3999
    },
    "merges": [
      [
        "ã",
        "ģ"
      ],
      [
        "ã",
        "Ĥ"
      ],
      [
        "ã",
        "Ģ"
      ],
      [
        "ãģ",
        "®"
      ],
      [
        "ãĢ",
        "ģ"
      ],
      [
        "ãģ",
        "Ħ"
      ],
      [
        "ãģ",
        "Ł"
      ],
      [
        "ãĢ",
        "Ĥ"
      ],
      [
        "ãģ",
        "¦"
      ],
      [
        "ãģ",
        "«"
      ],
      [
        "ãģ",
        "Ĺ"
      ],
      [
        "ãģ",
        "¯"
      ],
      [
        "ãģ",
        "ª"
      ],
      [
        "ãģ",
        "¨"
      ],
      [
        "ãĤ",
        "ĭ"
      ],
      [
        "ãĤ",
        "Ĵ"
      ],
      [
        "ãģ",
        "£"
      ],
      [
        "ãģ",
        "ĭ"
      ],
      [
        "ãģ",
        "§"
      ],
      [
        "ãģ",
        "Į"
      ],
      [
        "ä",
        "º"
      ],
      [
        "ä",
        "¸"
      ],
      [
        "ãĤ",
        "ī"
      ],
      [
        "ãĤ",
        "Ĥ"
      ],
      [
        "ãģ",
        "Ĩ"
      ],
      [
        "ãĤ",
        "Į"
      ],
      [
        "ãģ",
        "¾"
      ],
      [
        "ãģ",
        "Ĥ"
      ],
      [
        "ãĤ",
        "ĵ"
      ],
      [
        "ãģ",
        "ł"
      ],
      [
        "ã",
        "ĥ"
      ],
      [
        "ãģ",
        "Ŀ"
      ],
      [
        "ãĤ",
        "Ĭ"
      ],
      [
        "ãģ",
        "ı"
      ],
      [
        "ãģ",
        "Ļ"
      ],
      [
        "ãģ£",
        "ãģ¦"
      ],
      [
        "ãģ",
        "ĵ"
      ],
      [
        "ãģ£",
        "ãģŁ"
      ],
      [
        "ãģ®",
        "å"
      ],
      [
        "ãģĹ",
        "ãģ¦"
      ],
      [
        "ãģĹ",
        "ãģŁ"
      ],
      [
        "ãĢ",
        "Į"
      ],
      [
        "ãĢ",
        "į"
      ],
      [
        "ãģ®",
        "æ"
      ],
      [
        "ãģĭ",
        "ãĤī"
      ],
      [
        "ãģ",
        "ķ"
      ],
      [
        "ãģª",
        "ãģĦ"
      ],
      [
        "ä",
        "»"
      ],
      [
        "å",
        "ħ"
      ],
      [
        "å",
        "Ĳ"
      ],
      [
        "ãģ",
        "¤"
      ],
      [
        "äº",
        "º"
      ],
      [
        "ãĤ",
        "Ī"
      ],
      [
        "ç",
        "Ķ"
      ],
      [
        "ãģ",
        "Ī"
      ],
      [
        "å",
        "¤"
      ],
      [
        "è",
        "¦"
      ],
      [
        "å",
        "Ī"
      ],
      [
        "ãģ",
        "ĳ"
      ],
      [
        "ãģ",
        "į"
      ],
      [
        "ãģĤ",
        "ãĤĭ"
      ],
      [
        "ä",
        "½"
      ],
      [
        "æ",
        "Ŀ"
      ],
      [
        "å",
        "ı"
      ],
      [
        "ãģ",
        "©"
      ],
      [
        "ç",
        "§"
      ],
      [
        "ä¸",
        "Ģ"
      ],
      [
        "å",
        "ĩ"
      ],
      [
        "å",
        "®"
      ],
      [
        "äº",
        "ĭ"
      ],
      [
        "æ",
        "ľ"
      ],
      [
        "è¦",
        "ĭ"
      ],
      [
        "åĩ",
        "º"
      ],
      [
        "ãģĦ",
        "ãģŁ"
      ],
      [
        "ãģ®",
        "é"
      ],
      [
        "ãģ",
        "Ĭ"
      ],
      [
        "å",
        "¾"
      ],
      [
        "ç§",
        "ģ"
      ],
      [
        "ãģ®",
        "ãģ§"
      ],
      [
        "ãģ",
        "¸"
      ],
      [
        "ãģ",
        "¡"
      ],
      [
        "æ",
        "ĸ"
      ],
      [
        "ãĤ",
        "Ħ"
      ],
      [
        "å",
        "Ń"
      ],
      [
        "ãĤĴ",
        "æ"
      ],
      [
        "ãģ",
        "Ľ"
      ],
      [
        "ãģ®",
        "è"
      ],
      [
        "ãģĦ",
        "ãĤĭ"
      ],
      [
        "ãģ®",
        "ç"
      ],
      [
        "ãĤ",
        "į"
      ],
      [
        "æĿ",
        "¥"
      ],
      [
        "å",
        "į"
      ],
      [
        "ãĤ",
        "ģ"
      ],
      [
        "é",
        "ģ"
      ],
      [
        "æ",
        "ī"
      ],
      [
        "ãĤ",
        "ı"
      ],
      [
        "æ",
        "°"
      ],
      [
        "æ",
        "Ģ"
      ],
      [
        "äº",
        "ĳ"
      ],
      [
        "ãģĻ",
        "ãĤĭ"
      ],
      [
        "åĪ",
        "Ĩ"
      ],
      [
        "è",
        "¡"
      ],
      [
        "ãģ",
        "°"
      ],
      [
        "ãģĿ",
        "ãĤĮ"
      ],
      [
        "å",
        "°"
      ],
      [
        "ãģ¾",
        "ãģĹãģŁ"
      ],
      [
        "å",
        "¥"
      ],
      [
        "è",
        "ĩ"
      ],
      [
        "Ļ",
        "Ĥ"
      ],
      [
        "ãģĦ",
        "ãģ¦"
      ],
      [
        "ãģ",
        "ĺ"
      ],
      [
        "é",
        "ĸ"
      ],
      [
        "é",
        "Ģ"
      ],
      [
        "ãģ®",
        "ä¸"
      ],
      [
        "å",
        "Ľ"
      ],
      [
        "æ",
        "Ĺ"
      ],
      [
        "ä½",
        "ķ"
      ],
      [
        "æ",
        "Ń"
      ],
      [
        "å",
        "¿"
      ],
      [
        "ãĤĪ",
        "ãģĨ"
      ],
      [
        "å",
        "¹"
      ],
      [
        "å",
        "½"
      ],
      [
        "ãĤĵ",
        "ãģ§"
      ],
      [
        "çĶ",
        "Ł"
      ],
      [
        "å",
        "±"
      ],
      [
        "ãģ«",
        "ãģ¯"
      ],
      [
        "ä¸",
        "ī"
      ],
      [
        "äº",
        "Į"
      ],
      [
        "ãĤĴ",
        "è"
      ],
      [
        "å",
        "¯"
      ],
      [
        "ãģ",
        "ļ"
      ],
      [
        "ãģ«",
        "ãģª"
      ],
      [
        "ç",
        "Ľ"
      ],
      [
        "ãģ¨",
        "ãģĦ"
      ],
      [
        "ãģ«",
        "æ"
      ],
      [
        "ãģķ",
        "ãĤĵ"
      ],
      [
        "å",
        "º"
      ],
      [
        "æĢ",
        "Ŀ"
      ],
      [
        "ãĤĤ",
        "ãģ®"
      ],
      [
        "èĩ",
        "ª"
      ],
      [
        "æ°",
        "Ĺ"
      ],
      [
        "å¤",
        "§"
      ],
      [
        "åŃ",
        "Ĳ"
      ],
      [
        "è¡",
        "Į"
      ],
      [
        "ãģ",
        "Ń"
      ],
      [
        "æ",
        "ĻĤ"
      ],
      [
        "å",
        "¸"
      ],
      [
        "ãģĿ",
        "ãģĨ"
      ],
      [
        "ãģĭ",
        "ãģ£ãģŁ"
      ],
      [
        "ãĤ",
        "ĥ"
      ],
      [
        "é",
        "ĥ"
      ],
      [
        "ãģ«",
        "è"
      ],
      [
        "ç",
        "Ħ"
      ],
      [
        "é",
        "ĩ"
      ],
      [
        "ãĤĵ",
        "ãģł"
      ],
      [
        "ãģ§",
        "ãģĤãĤĭ"
      ],
      [
        "â",
        "Ģ"
      ],
      [
        "å",
        "¼"
      ],
      [
        "ãģ",
        "¿"
      ],
      [
        "ãĤĴ",
        "ç"
      ],
      [
        "åį",
        "ģ"
      ],
      [
        "è",
        "¨"
      ],
      [
        "è",
        "Ģ"
      ],
      [
        "æĹ",
        "¥"
      ],
      [
        "ãģĵ",
        "ãģ¨"
      ],
      [
        "å",
        "Ĭ"
      ],
      [
        "åĲ",
        "Ľ"
      ],
      [
        "ãĤĵ",
        "ãģª"
      ],
      [
        "ãģ¨",
        "äºĳ"
      ],
      [
        "ãģ§",
        "ãĤĤ"
      ],
      [
        "ç§ģ",
        "ãģ¯"
      ],
      [
        "è",
        "¿"
      ],
      [
        "é",
        "Ŀ"
      ],
      [
        "æ",
        "Ī"
      ],
      [
        "æ",
        "ĺ"
      ],
      [
        "ç",
        "Ļ"
      ],
      [
        "è",
        "ª"
      ],
      [
        "ç",
        "Ł"
      ],
      [
        "ãģĤ",
        "ãģ£ãģŁ"
      ],
      [
        "ãĤĮ",
        "ãģŁ"
      ],
      [
        "§",
        "ĺ"
      ],
      [
        "éĸ",
        "ĵ"
      ],
      [
        "å",
        "ĳ"
      ],
      [
        "å",
        "ĭ"
      ],
      [
        "ä»",
        "£"
      ],
      [
        "ä¸",
        "Ĭ"
      ],
      [
        "ãĤĭ",
        "ãģ¨"
      ],
      [
        "ãĤĮ",
        "ãģ¦"
      ],
      [
        "ī",
        "į"
      ],
      [
        "ãģª",
        "ãģĭãģ£ãģŁ"
      ],
      [
        "ãģ¨ãģĦ",
        "ãģĨ"
      ],
      [
        "ãģ«",
        "ç"
      ],
      [
        "å",
        "·"
      ],
      [
        "ä»",
        "Ĭ"
      ],
      [
        "é",
        "ł"
      ],
      [
        "ãĢ",
        "ħ"
      ],
      [
        "èĩª",
        "åĪĨ"
      ],
      [
        "åħ",
        "Ī"
      ],
      [
        "æ",
        "ķ"
      ],
      [
        "ģ",
        "ŀ"
      ],
      [
        "ãĤį",
        "ãģĨ"
      ],
      [
        "ä",
        "¿"
      ],
      [
        "æī",
        "ĭ"
      ],
      [
        "ç",
        "ī"
      ],
      [
        "ä",
        "¼"
      ],
      [
        "ãģĹ",
        "ãģĦ"
      ],
      [
        "ãģ§",
        "ãģĻ"
      ],
      [
        "ï",
        "¼"
      ],
      [
        "ãģª",
        "ãģı"
      ],
      [
        "ãģĵ",
        "ãĤĮ"
      ],
      [
        "æ",
        "Ħ"
      ],
      [
        "é",
        "£"
      ],
      [
        "é",
        "Ľ"
      ],
      [
        "ãģ¾",
        "ãģĻ"
      ],
      [
        "åĽ",
        "Ľ"
      ],
      [
        "éĥ",
        "İ"
      ],
      [
        "ä¸",
        "ĭ"
      ],
      [
        "ãģ®ãģ§",
        "ãģĻ"
      ],
      [
        "ãģ©",
        "ãģĨ"
      ],
      [
        "æĸ",
        "¹"
      ],
      [
        "«",
        "ĭ"
      ],
      [
        "ãĥ",
        "³"
      ],
      [
        "å¹",
        "´"
      ],
      [
        "é",
        "¡"
      ],
      [
        "ãģ®",
        "ãģł"
      ],
      [
        "æī",
        "Ģ"
      ],
      [
        "æ",
        "Ĭ"
      ],
      [
        "æ",
        "§ĺ"
      ],
      [
        "ç",
        "ľ"
      ],
      [
        "ãĤ",
        "ĩ"
      ],
      [
        "ä",
        "¹"
      ],
      [
        "å½",
        "¼"
      ],
      [
        "ç",
        "´"
      ],
      [
        "å¿",
        "ĥ"
      ],
      [
        "å",
        "ĥ"
      ],
      [
        "äº",
        "Ķ"
      ],
      [
        "ãģ§",
        "ãģ¯"
      ],
      [
        "ãģ¾",
        "ãģĽ"
      ],
      [
        "ãģ",
        "¬"
      ],
      [
        "ãģ£",
        "ãģ¨"
      ],
      [
        "é",
        "Ļ"
      ],
      [
        "ãģ®",
        "ãģ¯"
      ],
      [
        "ç",
        "µ"
      ],
      [
        "çŁ",
        "¥"
      ],
      [
        "å",
        "īį"
      ],
      [
        "ãĤĴ",
        "è¦ĭ"
      ],
      [
        "å¾",
        "¡"
      ],
      [
        "ç",
        "Ń"
      ],
      [
        "ãģª",
        "ãĤī"
      ],
      [
        "ãģ",
        "Ķ"
      ],
      [
        "ä¸",
        "Ń"
      ],
      [
        "è",
        "©"
      ],
      [
        "ãģĹ",
        "ãģĭ"
      ],
      [
        "å",
        "£"
      ],
      [
        "ãģ®ä¸",
        "Ń"
      ],
      [
        "ãģ¨",
        "æĢĿ"
      ],
      [
        "åħ",
        "¥"
      ],
      [
        "ãģĪ",
        "ãģ¦"
      ],
      [
        "å",
        "Ĩ"
      ],
      [
        "Ľ",
        "¸"
      ],
      [
        "ãģ",
        "Ĵ"
      ],
      [
        "âĢ",
        "ķ"
      ],
      [
        "å®",
        "¶"
      ],
      [
        "ä¸",
        "»"
      ],
      [
        "è",
        "«"
      ],
      [
        "ãģ",
        "³"
      ],
      [
        "ãģĳ",
        "ãĤĮ"
      ],
      [
        "ãģ«",
        "ãĤĤ"
      ],
      [
        "ãģ",
        "¹"
      ],
      [
        "ç",
        "Ī"
      ],
      [
        "å",
        "ľ"
      ],
      [
        "ãģ",
        "»"
      ],
      [
        "ä",
        "¾"
      ],
      [
        "å¥",
        "³"
      ],
      [
        "ãģ¯",
        "æ"
      ],
      [
        "æľ",
        "Ī"
      ],
      [
        "æĿ¥",
        "ãģŁ"
      ],
      [
        "ãģ£ãģ¦",
        "ãģĦãĤĭ"
      ],
      [
        "çī",
        "©"
      ],
      [
        "çĦ",
        "¡"
      ],
      [
        "é",
        "ļ"
      ],
      [
        "å°",
        "ĳ"
      ],
      [
        "ãģĮ",
        "ãĤī"
      ],
      [
        "ãģ¤",
        "ãģ¦"
      ],
      [
        "åŃ",
        "¦"
      ],
      [
        "ãģĤ",
        "ãĤĬ"
      ],
      [
        "è",
        "»"
      ],
      [
        "åĬ",
        "©"
      ],
      [
        "ãģĭ",
        "ãĤĬ"
      ],
      [
        "æ",
        "¯"
      ],
      [
        "æľ",
        "¬"
      ],
      [
        "ãģ¾",
        "ãģŁ"
      ],
      [
        "ãģĳ",
        "ãģ¦"
      ],
      [
        "ãģ®æ",
        "ĸ"
      ],
      [
        "éĿ",
        "¢"
      ],
      [
        "ç",
        "¬"
      ],
      [
        "ãģĿ",
        "ãģ®"
      ],
      [
        "åħĪ",
        "çĶŁ"
      ],
      [
        "ãģ§",
        "ãģĤãģ£ãģŁ"
      ],
      [
        "åº",
        "¦"
      ],
      [
        "ä¸",
        "į"
      ],
      [
        "Į",
        "ģ"
      ],
      [
        "è",
        "ģŀ"
      ],
      [
        "æ",
        "±"
      ],
      [
        "çĽ",
        "®"
      ],
      [
        "ãģĺ",
        "ãĤĥ"
      ],
      [
        "ãģ¤",
        "ãģŁ"
      ],
      [
        "ãģ¾ãģĽ",
        "ãĤĵ"
      ],
      [
        "ãģ¾",
        "ãģ§"
      ],
      [
        "åĲ",
        "Ī"
      ],
      [
        "ãĤ",
        "Ģ"
      ],
      [
        "èĢ",
        "ħ"
      ],
      [
        "ãĤĮ",
        "ãĤĭ"
      ],
      [
        "è",
        "¾"
      ],
      [
        "ãģª",
        "ãģĮãĤī"
      ],
      [
        "ç",
        "¾"
      ],
      [
        "çĦ",
        "¶"
      ],
      [
        "å½",
        "ĵ"
      ],
      [
        "å±",
        "ĭ"
      ],
      [
        "ãĤĤ",
        "ãģĨ"
      ],
      [
        "è",
        "²"
      ],
      [
        "ãģĦ",
        "ãģ¾ãģĹãģŁ"
      ],
      [
        "ãģĮ",
        "ãģĤãĤĭ"
      ],
      [
        "å",
        "ł"
      ],
      [
        "ãģ",
        "µ"
      ],
      [
        "ãĤģ",
        "ãģ¦"
      ],
      [
        "ç",
        "«ĭ"
      ],
      [
        "æ",
        "ł"
      ],
      [
        "ãģ",
        "ĸ"
      ],
      [
        "ãģ",
        "²"
      ],
      [
        "å",
        "Į"
      ],
      [
        "ãģ",
        "Ĳ"
      ],
      [
        "äºº",
        "ãģ¯"
      ],
      [
        "è",
        "µ"
      ],
      [
        "ãģĹãģ¦",
        "ãģĦãĤĭ"
      ],
      [
        "âĢ",
        "¦"
      ],
      [
        "ç",
        "ķ"
      ],
      [
        "åĲ",
        "Į"
      ],
      [
        "éĢ",
        "ļ"
      ],
      [
        "çĪ",
        "¶"
      ],
      [
        "ãģĹ",
        "ãģ¾"
      ],
      [
        "åĥ",
        "ķ"
      ],
      [
        "åı",
        "£"
      ],
      [
        "ãģ¨äºĳ",
        "ãģĨ"
      ],
      [
        "ãģĿ",
        "ãģ®å"
      ],
      [
        "ãģł",
        "ãģĭãĤī"
      ],
      [
        "æ",
        "³"
      ],
      [
        "å",
        "ĸ"
      ],
      [
        "æĺ",
        "İ"
      ],
      [
        "ãģ®æĸ",
        "¹"
      ],
      [
        "ãĥ",
        "«"
      ],
      [
        "å¾",
        "Į"
      ],
      [
        "åĲ",
        "ĳ"
      ],
      [
        "å°",
        "ı"
      ],
      [
        "å",
        "¦"
      ],
      [
        "æ",
        "¥"
      ],
      [
        "å",
        "§"
      ],
      [
        "çĶ",
        "·"
      ],
      [
        "ãģĹ",
        "ãģı"
      ],
      [
        "ãģĹ",
        "ãĤĩ"
      ],
      [
        "è¨",
        "Ģ"
      ],
      [
        "ãĢĤ",
        "ãĢį"
      ],
      [
        "æ",
        "Ĥ"
      ],
      [
        "æĸ",
        "İ"
      ],
      [
        "ãĥ",
        "¼"
      ],
      [
        "æ",
        "®"
      ],
      [
        "åı",
        "ĸ"
      ],
      [
        "éĩ",
        "ĳ"
      ],
      [
        "ãĤ",
        "Ĳ"
      ],
      [
        "ä»£",
        "åĬ©"
      ],
      [
        "ãĤĪ",
        "ãĤĬ"
      ],
      [
        "è",
        "¶"
      ],
      [
        "å",
        "İ"
      ],
      [
        "åĩº",
        "æĿ¥"
      ],
      [
        "ãģ®ãģ§",
        "ãģĤãĤĭ"
      ],
      [
        "ãģĵ",
        "ãĤį"
      ],
      [
        "æ",
        "²"
      ],
      [
        "ç",
        "¨"
      ],
      [
        "ãģĪ",
        "ãģŁ"
      ],
      [
        "æ",
        "¬"
      ],
      [
        "æ",
        "ĥ"
      ],
      [
        "ãģĿ",
        "ãģ®æ"
      ],
      [
        "ãģ®é",
        "ĸ"
      ],
      [
        "æ",
        "µ"
      ],
      [
        "ãģ£ãģ¦",
        "ãģĦãģŁ"
      ],
      [
        "ãģ®ä¸",
        "Ĭ"
      ],
      [
        "ķ",
        "·"
      ],
      [
        "å¸",
        "°"
      ],
      [
        "å",
        "Ģ"
      ],
      [
        "ãģª",
        "ãĤĭ"
      ],
      [
        "ãģ",
        "İ"
      ],
      [
        "é¡",
        "Ķ"
      ],
      [
        "é",
        "»"
      ],
      [
        "æ",
        "Ľ¸"
      ],
      [
        "ãģ¨",
        "ãģĹãģ¦"
      ],
      [
        "æ",
        "´"
      ],
      [
        "ãĤ",
        "¹"
      ],
      [
        "æ",
        "¸"
      ],
      [
        "æ",
        "İ"
      ],
      [
        "å±",
        "±"
      ],
      [
        "å¹",
        "³"
      ],
      [
        "ãģł",
        "ãģĳ"
      ],
      [
        "è©",
        "±"
      ],
      [
        "è",
        "Ń"
      ],
      [
        "å®",
        "Ł"
      ],
      [
        "è",
        "ĭ"
      ],
      [
        "æ",
        "ģ"
      ],
      [
        "ãģ°",
        "ãģĭãĤĬ"
      ],
      [
        "ãĤĪãģĨ",
        "ãģª"
      ],
      [
        "ãĤĪãģĨ",
        "ãģ«"
      ],
      [
        "é",
        "¦"
      ],
      [
        "ãģĦ",
        "ãģĦ"
      ],
      [
        "è",
        "¼"
      ],
      [
        "ãģ®å",
        "®"
      ],
      [
        "æĦ",
        "ı"
      ],
      [
        "ãģĹãĤĩ",
        "ãģĨ"
      ],
      [
        "ãĤĵãģ§",
        "ãģĻ"
      ],
      [
        "ãģ®å",
        "¤"
      ],
      [
        "ãģĹãģĭ",
        "ãģĹ"
      ],
      [
        "åĽĽ",
        "éĥİ"
      ],
      [
        "ãģ®",
        "äºĭ"
      ],
      [
        "æ",
        "ļ"
      ],
      [
        "è",
        "ī"
      ],
      [
        "ãģı",
        "ãĤī"
      ],
      [
        "ä»",
        "ĺ"
      ],
      [
        "è",
        "Ī"
      ],
      [
        "åĪ",
        "ĩ"
      ],
      [
        "çĻ",
        "½"
      ],
      [
        "ãģĳ",
        "ãģŁ"
      ],
      [
        "ãģ®",
        "ãģĭ"
      ],
      [
        "ãģĿ",
        "ãĤĵãģª"
      ],
      [
        "å¥",
        "½"
      ],
      [
        "ç",
        "ļ"
      ],
      [
        "ãģ¨",
        "ãĤĤ"
      ],
      [
        "ä¸ī",
        "åĽĽéĥİ"
      ],
      [
        "æĪ",
        "¸"
      ],
      [
        "çĶ",
        "°"
      ],
      [
        "ãģĪ",
        "ãĤĭ"
      ],
      [
        "å¤",
        "ĸ"
      ],
      [
        "çĽ",
        "¸"
      ],
      [
        "å°ĳ",
        "ãģĹ"
      ],
      [
        "ãĤĴ",
        "ãģĹãģ¦"
      ],
      [
        "ãģĳãĤĮ",
        "ãģ©"
      ],
      [
        "ãĤī",
        "ãģªãģĦ"
      ],
      [
        "ãĥ",
        "©"
      ],
      [
        "èĢ",
        "ĥ"
      ],
      [
        "åĭ",
        "ķ"
      ],
      [
        "æ",
        "Ļ"
      ],
      [
        "é",
        "ķ·"
      ],
      [
        "è¾",
        "¼"
      ],
      [
        "ãģĦ",
        "ãģ¤"
      ],
      [
        "ä»",
        "ķ"
      ],
      [
        "ãĥ³",
        "ãĥ"
      ],
      [
        "ãĢĤ",
        "ãĢĮ"
      ],
      [
        "ç",
        "©"
      ],
      [
        "º",
        "«"
      ],
      [
        "ç",
        "½"
      ],
      [
        "ãģ®æ",
        "ī"
      ],
      [
        "ãģĻãĤĭ",
        "ãģ¨"
      ],
      [
        "å",
        "»"
      ],
      [
        "æĸ",
        "ĩ"
      ],
      [
        "ä½",
        "ĵ"
      ],
      [
        "æ",
        "ŀ"
      ],
      [
        "ä¸",
        "ĸ"
      ],
      [
        "ãģĨ",
        "ãģ¨"
      ],
      [
        "å¤",
        "ī"
      ],
      [
        "çĻ",
        "¾"
      ],
      [
        "¢",
        "¨"
      ],
      [
        "ãĤĮ",
        "ãģ°"
      ],
      [
        "ãĤģ",
        "ãģŁ"
      ],
      [
        "è",
        "³"
      ],
      [
        "è¿",
        "Ķ"
      ],
      [
        "ãģ®éĸ",
        "ĵ"
      ],
      [
        "æ",
        "Įģ"
      ],
      [
        "½",
        "æĸİ"
      ],
      [
        "ãĤ",
        "¢"
      ],
      [
        "å",
        "ķ"
      ],
      [
        "æ¬",
        "¡"
      ],
      [
        "ãģĿ",
        "ãģĵ"
      ],
      [
        "äºº",
        "éĸĵ"
      ],
      [
        "ãģ¯",
        "ãģªãģĦ"
      ],
      [
        "ç¬",
        "ĳ"
      ],
      [
        "ç",
        "Ĳ"
      ],
      [
        "åľ",
        "°"
      ],
      [
        "æŃ",
        "»"
      ],
      [
        "ãģ",
        "¶"
      ],
      [
        "ãģ¡",
        "ãĤĥ"
      ],
      [
        "æľ",
        "¨"
      ],
      [
        "æ¯",
        "į"
      ],
      [
        "ä»",
        "¥"
      ],
      [
        "éĩ",
        "İ"
      ],
      [
        "äºº",
        "ãģĮ"
      ],
      [
        "Ŀ",
        "Ģ"
      ],
      [
        "å¾",
        "Ĺ"
      ],
      [
        "å",
        "ģ"
      ],
      [
        "ãģĵ",
        "ãģ®å"
      ],
      [
        "è",
        "ĳ"
      ],
      [
        "ãģł",
        "ãĤįãģĨ"
      ],
      [
        "å¼",
        "ķ"
      ],
      [
        "é",
        "«"
      ],
      [
        "éģ",
        "ķ"
      ],
      [
        "âĢķ",
        "âĢķ"
      ],
      [
        "è",
        "ĥ"
      ],
      [
        "æĬ",
        "½æĸİ"
      ],
      [
        "ãģ»",
        "ãģ©"
      ],
      [
        "ãģ¨",
        "ãģĵãĤį"
      ],
      [
        "ãģ¾",
        "ãģł"
      ],
      [
        "ãĤĮ",
        "ãģªãģĦ"
      ],
      [
        "é£",
        "Ł"
      ],
      [
        "ãģŁ",
        "ãģł"
      ],
      [
        "é",
        "¢¨"
      ],
      [
        "ç",
        "ª"
      ],
      [
        "é",
        "ħ"
      ],
      [
        "å£",
        "°"
      ],
      [
        "ä¼",
        "ļ"
      ],
      [
        "è",
        "§"
      ],
      [
        "ãģ«ãģª",
        "ãģ£ãģŁ"
      ],
      [
        "ç",
        "ĭ"
      ],
      [
        "ãģŁ",
        "ãĤģ"
      ],
      [
        "åĲ",
        "į"
      ],
      [
        "ãģ«ãģª",
        "ãģ£ãģ¦"
      ],
      [
        "æ",
        "ħ"
      ],
      [
        "ãģĮ",
        "ãģªãģĦ"
      ],
      [
        "å",
        "²"
      ],
      [
        "å§",
        "ĭ"
      ],
      [
        "ãģª",
        "ãģĭ"
      ],
      [
        "å¥",
        "¥"
      ],
      [
        "åĲ",
        "¾"
      ],
      [
        "ãģĨ",
        "ãģ¡"
      ],
      [
        "æĿ¥",
        "ãģ¦"
      ],
      [
        "çĶ",
        "¨"
      ],
      [
        "ãĤĲ",
        "ãĤĭ"
      ],
      [
        "ãģ«",
        "ãģĹãģ¦"
      ],
      [
        "åħ",
        "Ń"
      ],
      [
        "åĩº",
        "ãģĹãģŁ"
      ],
      [
        "ãģĵ",
        "ãģĨ"
      ],
      [
        "ãģķãĤĵ",
        "ãģ¯"
      ],
      [
        "åĳ",
        "³"
      ],
      [
        "ãģĳãĤĮãģ©",
        "ãĤĤ"
      ],
      [
        "éł",
        "Ń"
      ],
      [
        "ãģ¨",
        "ãģ¯"
      ],
      [
        "çĶ",
        "º"
      ],
      [
        "ãģį",
        "ãģª"
      ],
      [
        "äºĭ",
        "ãĤĴ"
      ],
      [
        "å¤",
        "©"
      ],
      [
        "ãģ",
        "¼"
      ],
      [
        "éģ",
        "Ķ"
      ],
      [
        "ãĢį",
        "ãĢĮ"
      ],
      [
        "åħ",
        "¨"
      ],
      [
        "ãģª",
        "ãģ©"
      ],
      [
        "ãģķ",
        "ãģĦ"
      ],
      [
        "è¶",
        "³"
      ],
      [
        "çĲ",
        "Ĩ"
      ],
      [
        "ç",
        "Ĺ"
      ],
      [
        "æ°",
        "´"
      ],
      [
        "åķ",
        "ı"
      ],
      [
        "ãĥ",
        "ĥ"
      ],
      [
        "å±",
        "ħ"
      ],
      [
        "åĩº",
        "ãģ¦"
      ],
      [
        "è",
        "º«"
      ],
      [
        "Ĳ",
        "½"
      ],
      [
        "ãģĤ",
        "ãģª"
      ],
      [
        "æĿ",
        "±"
      ],
      [
        "åħ",
        "«"
      ],
      [
        "ãģĿãĤĮ",
        "ãģĭãĤī"
      ],
      [
        "ãģ",
        "ľ"
      ],
      [
        "ãĤĤ",
        "çŁ¥"
      ],
      [
        "ãĤ",
        "¸"
      ],
      [
        "ä»£åĬ©",
        "ãģ¯"
      ],
      [
        "å",
        "©"
      ],
      [
        "ãģ«ãģª",
        "ãĤĭ"
      ],
      [
        "æł",
        "¡"
      ],
      [
        "ãģł",
        "ãģĮ"
      ],
      [
        "éĥ",
        "¨"
      ],
      [
        "è¡Į",
        "ãģı"
      ],
      [
        "èī",
        "²"
      ],
      [
        "æ",
        "Ķ"
      ],
      [
        "éģ",
        "ĵ"
      ],
      [
        "è¼",
        "©"
      ],
      [
        "è¦",
        "ª"
      ],
      [
        "æ°Ĺ",
        "ãģĮ"
      ],
      [
        "åĲĽ",
        "ãģ¯"
      ],
      [
        "ãģŁ",
        "ãģĦ"
      ],
      [
        "çľ",
        "¼"
      ],
      [
        "çľ",
        "Ł"
      ],
      [
        "ãģĤãģª",
        "ãģŁ"
      ],
      [
        "èĳ",
        "ī"
      ],
      [
        "ä¿",
        "Ŀ"
      ],
      [
        "âĢ¦",
        "âĢ¦"
      ],
      [
        "ä¿",
        "¡"
      ],
      [
        "å¤",
        "ļ"
      ],
      [
        "ãĤī",
        "ãĤĮãģŁ"
      ],
      [
        "ãģ¾",
        "ãĤĬ"
      ],
      [
        "ãĤĪ",
        "ãģı"
      ],
      [
        "è»",
        "Ĭ"
      ],
      [
        "ãĥ",
        "ª"
      ],
      [
        "æŃ",
        "³"
      ],
      [
        "ãģĦ",
        "ãģ¾ãģĻ"
      ],
      [
        "ãģĳãĤĮ",
        "ãģ°"
      ],
      [
        "ç",
        "Ĥ"
      ],
      [
        "ãģĳ",
        "ãĤĭ"
      ],
      [
        "ãģŁ",
        "ãģı"
      ],
      [
        "ãĥ",
        "§"
      ],
      [
        "ç",
        "¥"
      ],
      [
        "çŃ",
        "ī"
      ],
      [
        "ç",
        "·"
      ],
      [
        "æĤ",
        "ª"
      ],
      [
        "æ",
        "ĭ"
      ],
      [
        "ãģĵ",
        "ãĤĵãģª"
      ],
      [
        "Ł",
        "³"
      ],
      [
        "äº",
        "¬"
      ],
      [
        "ç¾",
        "İ"
      ],
      [
        "ä¸Ģ",
        "äºº"
      ],
      [
        "ãģ§",
        "ãģĹãģŁ"
      ],
      [
        "ãģĻ",
        "ãģĲ"
      ],
      [
        "ç¨",
        "ĭ"
      ],
      [
        "è",
        "£"
      ],
      [
        "çĽ",
        "´"
      ],
      [
        "ãĤ",
        "¤"
      ],
      [
        "è",
        "Ĥ"
      ],
      [
        "ãģ®",
        "ãģĮ"
      ],
      [
        "ãģ®æ",
        "§ĺ"
      ],
      [
        "äºĭ",
        "ãģĮ"
      ],
      [
        "å",
        "Ŀ"
      ],
      [
        "ãģĺãĤĥ",
        "ãģªãģĦ"
      ],
      [
        "åĲ¾",
        "è¼©"
      ],
      [
        "ãģĵ",
        "ãģ®"
      ],
      [
        "ãģª",
        "ãģ£ãģŁ"
      ],
      [
        "ãģª",
        "ãĤĬ"
      ],
      [
        "åĲĮ",
        "ãģĺ"
      ],
      [
        "ãģ®å",
        "ħ"
      ],
      [
        "æ°",
        "ı"
      ],
      [
        "ãĥ",
        "ĳ"
      ],
      [
        "ãģ©",
        "ãģĵ"
      ],
      [
        "è¿",
        "·"
      ],
      [
        "ãģĿãģĨ",
        "ãģĹãģ¦"
      ],
      [
        "ãģĹãģ¦",
        "ãģĦãģŁ"
      ],
      [
        "ãģĽ",
        "ãģ¦"
      ],
      [
        "å¤",
        "«"
      ],
      [
        "ä¸īåĽĽéĥİ",
        "ãģ¯"
      ],
      [
        "æĿ¥",
        "ãĤĭ"
      ],
      [
        "çļ",
        "Ħ"
      ],
      [
        "ãĥ",
        "Ĳ"
      ],
      [
        "äºĳ",
        "ãģĨ"
      ],
      [
        "ï¼",
        "Ł"
      ],
      [
        "è«",
        "ĸ"
      ],
      [
        "ãģ®å®",
        "¶"
      ],
      [
        "éģ",
        "İ"
      ],
      [
        "ç",
        "¦"
      ],
      [
        "åł",
        "´"
      ],
      [
        "ä½ķ",
        "ãģĭ"
      ],
      [
        "ãĥ",
        "Ī"
      ],
      [
        "ãģĹ",
        "ãģ¾ãģĹãģŁ"
      ],
      [
        "ãģķ",
        "ãģĪ"
      ],
      [
        "é",
        "¤"
      ],
      [
        "åĨ",
        "ħ"
      ],
      [
        "ãģĤãĤĬ",
        "ãģ¾ãģĽãĤĵ"
      ],
      [
        "åħ",
        "ĥ"
      ],
      [
        "å¯",
        "¾"
      ],
      [
        "ãģıãĤī",
        "ãģĦ"
      ],
      [
        "ãģª",
        "ãģĳãĤĮãģ°"
      ],
      [
        "å½¼",
        "ãģ¯"
      ],
      [
        "ãĤ",
        "«"
      ],
      [
        "åĸ",
        "Ħ"
      ],
      [
        "åĩº",
        "ãģĹãģ¦"
      ],
      [
        "ãģĶ",
        "ãģ¨"
      ],
      [
        "èĭ",
        "¦"
      ],
      [
        "æŃ",
        "¤"
      ],
      [
        "åĬ",
        "Ľ"
      ],
      [
        "è",
        "Ĭ"
      ],
      [
        "ãģª",
        "ãĤĵ"
      ],
      [
        "ãģ®å",
        "Ń"
      ],
      [
        "åı",
        "Ĺ"
      ],
      [
        "åį",
        "ĥ"
      ],
      [
        "æĪ",
        "Ĳ"
      ],
      [
        "æĸ",
        "°"
      ],
      [
        "å®",
        "ī"
      ],
      [
        "ç",
        "«"
      ],
      [
        "éĸ",
        "Ģ"
      ],
      [
        "åĪ",
        "¥"
      ],
      [
        "ãĤĵ",
        "ãģ¨"
      ],
      [
        "ä½",
        "ľ"
      ],
      [
        "ãģ®é",
        "¡"
      ],
      [
        "ãģ®å",
        "¥"
      ],
      [
        "æ",
        "Į"
      ],
      [
        "ãĥ",
        "ı"
      ],
      [
        "è¦",
        "ļ"
      ],
      [
        "èª",
        "°"
      ],
      [
        "äºĶ",
        "çĻ¾"
      ],
      [
        "ãģ®æ",
        "ľ"
      ],
      [
        "è",
        "ħ"
      ],
      [
        "è¨",
        "³"
      ],
      [
        "ï¼",
        "«"
      ],
      [
        "ãģĹãģ¾",
        "ãģ£ãģŁ"
      ],
      [
        "å",
        "Ĥ"
      ],
      [
        "åĪ",
        "Ŀ"
      ],
      [
        "ä¸",
        "Ī"
      ],
      [
        "ãģĿãĤĮ",
        "ãģ¯"
      ],
      [
        "ä¸»",
        "äºº"
      ],
      [
        "å",
        "Ħ"
      ],
      [
        "æŃ",
        "©"
      ],
      [
        "ãģ«",
        "ãģĭ"
      ],
      [
        "ãģ®é",
        "ł"
      ],
      [
        "å¤",
        "ľ"
      ],
      [
        "ãĤ",
        "·"
      ],
      [
        "å",
        "¬"
      ],
      [
        "ãģĬ",
        "ãĤĮ"
      ],
      [
        "ç½",
        "®"
      ],
      [
        "ãģĹ",
        "ãģªãģĦ"
      ],
      [
        "çŃ",
        "Ķ"
      ],
      [
        "é¦",
        "¬"
      ],
      [
        "æĹ",
        "©"
      ],
      [
        "äºĮ",
        "åįģ"
      ],
      [
        "å¸",
        "«"
      ],
      [
        "ãģ¡",
        "ãĤĩ"
      ],
      [
        "æ",
        "·"
      ],
      [
        "ãĤĤ",
        "ãģ®ãģ§"
      ],
      [
        "è«",
        "¸"
      ],
      [
        "è¿",
        "ĳ"
      ],
      [
        "é",
        "³"
      ],
      [
        "ãģ®å",
        "¾"
      ],
      [
        "å¯",
        "Ĵ"
      ],
      [
        "äºĮ",
        "äºº"
      ],
      [
        "è¦ĭ",
        "ãĤĭãģ¨"
      ],
      [
        "ç",
        "İ"
      ],
      [
        "æ",
        "¨"
      ],
      [
        "åĽ",
        "½"
      ],
      [
        "ç",
        "¸"
      ],
      [
        "ãģ¨",
        "ãģĭ"
      ],
      [
        "ãĤĴ",
        "ãģĹãģŁ"
      ],
      [
        "ãģ¦",
        "ãģĦãĤĭ"
      ],
      [
        "ä¸Ģ",
        "ãģ¤"
      ],
      [
        "ãģĦ",
        "ãģ§"
      ],
      [
        "ãģĿãĤĮ",
        "ãģĮ"
      ],
      [
        "é«",
        "ĺ"
      ],
      [
        "ãĥ",
        "Ń"
      ],
      [
        "ãģĿ",
        "ãģĹãģ¦"
      ],
      [
        "ãģ®å",
        "īį"
      ],
      [
        "ãģĦ",
        "ãĤĦ"
      ],
      [
        "ãģĵ",
        "ãģĵ"
      ],
      [
        "è",
        "Į"
      ],
      [
        "æĦ",
        "Ł"
      ],
      [
        "è",
        "Ĳ½"
      ],
      [
        "ç´",
        "°"
      ],
      [
        "æ",
        "Ł"
      ],
      [
        "é£",
        "Ľ"
      ],
      [
        "å",
        "ĵ"
      ],
      [
        "ç",
        "Į"
      ],
      [
        "ãģĭ",
        "ãģ«"
      ],
      [
        "ãģ®è",
        "¨"
      ],
      [
        "ãģ®å",
        "ı"
      ],
      [
        "ãĤĬ",
        "ãģ¾ãģĹãģŁ"
      ],
      [
        "ä½",
        "Ļ"
      ],
      [
        "éĸ",
        "ĭ"
      ],
      [
        "åħ",
        "¶"
      ],
      [
        "åĭ",
        "Ŀ"
      ],
      [
        "åı",
        "Ī"
      ],
      [
        "ä¸",
        "ĥ"
      ],
      [
        "ä¸»",
        "äººãģ¯"
      ],
      [
        "åŃ¦",
        "æł¡"
      ],
      [
        "ãģ¾",
        "ãĤĭ"
      ],
      [
        "ãģ£ãģ¦",
        "ãĤĤ"
      ],
      [
        "ãģĭ",
        "ãĤĤçŁ¥"
      ],
      [
        "é",
        "¼"
      ],
      [
        "èµ",
        "·"
      ],
      [
        "å",
        "«"
      ],
      [
        "å¾",
        "ħ"
      ],
      [
        "ãĥ³ãĥ",
        "ĭ"
      ],
      [
        "ç",
        "ĿĢ"
      ],
      [
        "ä¸Ĭ",
        "ãģĴ"
      ],
      [
        "ãĤĴè",
        "ª"
      ],
      [
        "äº",
        "Ń"
      ],
      [
        "ãĤ¸",
        "ãĥ§"
      ],
      [
        "ãģ®é¡",
        "Ķ"
      ],
      [
        "ãģŁ",
        "ãģ¡"
      ],
      [
        "ãĤĤ",
        "ãģªãģĦ"
      ],
      [
        "ãģ®å",
        "Ĳ"
      ],
      [
        "éģ",
        "ł"
      ],
      [
        "éĢ",
        "Ļ"
      ],
      [
        "å¼",
        "µ"
      ],
      [
        "ãĥĲ",
        "ãĥ³ãĥĭ"
      ],
      [
        "ãĤ¸ãĥ§",
        "ãĥĲãĥ³ãĥĭ"
      ],
      [
        "ä¸",
        "İ"
      ],
      [
        "ãģ£",
        "ãģ"
      ],
      [
        "ãĤĴ",
        "ãģĻãĤĭ"
      ],
      [
        "ãĤī",
        "ãģĹãģĦ"
      ],
      [
        "ãĤī",
        "ãĤĮ"
      ],
      [
        "åı",
        "¯"
      ],
      [
        "ãģ®æ",
        "ĻĤ"
      ],
      [
        "å·",
        "Ŀ"
      ],
      [
        "éĢļ",
        "ãĤĬ"
      ],
      [
        "å²",
        "¡"
      ],
      [
        "è",
        "Ķ"
      ],
      [
        "Ł",
        "¥"
      ],
      [
        "è¡Į",
        "ãģ£ãģŁ"
      ],
      [
        "ãģķãĤĵ",
        "ãģĮ"
      ],
      [
        "ãģĭ",
        "ãģª"
      ],
      [
        "æ¥",
        "Ń"
      ],
      [
        "ãĤĴè",
        "ģŀ"
      ],
      [
        "ä¾",
        "ĭ"
      ],
      [
        "è¦",
        "ģ"
      ],
      [
        "æŃ",
        "£"
      ],
      [
        "éĩ",
        "į"
      ],
      [
        "ãģ®æī",
        "ĭ"
      ],
      [
        "ãĥ",
        "ł"
      ],
      [
        "æĢ",
        "¥"
      ],
      [
        "æ",
        "Ľ"
      ],
      [
        "ãģ¾",
        "ãģ¾"
      ],
      [
        "å¿",
        "ħ"
      ],
      [
        "ãĤĤãģ®",
        "ãģ¯"
      ],
      [
        "åĳ",
        "½"
      ],
      [
        "ãģĹ",
        "ãĤĥ"
      ],
      [
        "èµ",
        "¤"
      ],
      [
        "æ",
        "£"
      ],
      [
        "æ±",
        "Ł"
      ],
      [
        "ãģĿ",
        "ãģ®ç"
      ],
      [
        "è",
        "į"
      ],
      [
        "ç¬",
        "¬"
      ],
      [
        "é",
        "§"
      ],
      [
        "ãģĿãģ®æ",
        "ĻĤ"
      ],
      [
        "ç",
        "ı"
      ],
      [
        "ç",
        "¤"
      ],
      [
        "ãģł",
        "ãģĭ"
      ],
      [
        "å¤§",
        "ãģįãģª"
      ],
      [
        "ãģĵãĤĮ",
        "ãģ¯"
      ],
      [
        "ãģķ",
        "ãģ¾"
      ],
      [
        "ãģĵãģ¨",
        "ãģĮ"
      ],
      [
        "å",
        "ī"
      ],
      [
        "çŁ",
        "³"
      ],
      [
        "åħ",
        "ī"
      ],
      [
        "ãģ¹",
        "ãģį"
      ],
      [
        "ãģ®ä¸",
        "ĭ"
      ],
      [
        "ãĤī",
        "ãĤĮãģ¦"
      ],
      [
        "å¸",
        "¸"
      ],
      [
        "ãģ«",
        "è¦ĭ"
      ],
      [
        "ä½",
        "¿"
      ],
      [
        "æĥ",
        "ħ"
      ],
      [
        "æķ",
        "Ļ"
      ],
      [
        "ãģ®å",
        "¦"
      ],
      [
        "ä¾",
        "Ľ"
      ],
      [
        "é»",
        "Ĵ"
      ],
      [
        "æ§ĺ",
        "ãģª"
      ],
      [
        "ãģ¤",
        "ãģĦãģ¦"
      ],
      [
        "ãģ«",
        "ãģĬ"
      ],
      [
        "ç´",
        "Ļ"
      ],
      [
        "æ",
        "¼"
      ],
      [
        "é",
        "Ĥ"
      ],
      [
        "©",
        "ļ"
      ],
      [
        "ãģ§ãģ¯",
        "ãģªãģĦ"
      ],
      [
        "å",
        "³"
      ],
      [
        "ãģ®",
        "ãģĬ"
      ],
      [
        "èĩªåĪĨ",
        "ãģ¯"
      ],
      [
        "åİ",
        "Ł"
      ],
      [
        "å»",
        "»"
      ],
      [
        "ãģĤ",
        "ãģ£ãģ¦"
      ],
      [
        "ç¥",
        "ŀ"
      ],
      [
        "ãģ®",
        "äºº"
      ],
      [
        "ä¹",
        "Ŀ"
      ],
      [
        "çµ",
        "Ĳ"
      ],
      [
        "ãģł",
        "ãģ£ãģŁ"
      ],
      [
        "ãģĽ",
        "ãĤĭ"
      ],
      [
        "åĳ",
        "¼"
      ],
      [
        "å¦",
        "Ļ"
      ],
      [
        "ç",
        "¶"
      ],
      [
        "æ",
        "©"
      ],
      [
        "ãģ§",
        "ãģĹãĤĩãģĨ"
      ],
      [
        "ãģ",
        "¥"
      ],
      [
        "ãĤī",
        "ãģı"
      ],
      [
        "å·",
        "±"
      ],
      [
        "ãģĦ",
        "ãģĭ"
      ],
      [
        "äºĭ",
        "ãģ¯"
      ],
      [
        "ä»Ĭ",
        "æĹ¥"
      ],
      [
        "ãģł",
        "ãģ£ãģ¦"
      ],
      [
        "ãģ®å",
        "¿"
      ],
      [
        "éģİ",
        "ãģİ"
      ],
      [
        "ãģ",
        "ŀ"
      ],
      [
        "æĸ",
        "Ń"
      ],
      [
        "æķ",
        "·"
      ],
      [
        "è¦ĭ",
        "ãģŁ"
      ],
      [
        "é",
        "©ļ"
      ],
      [
        "ãģĽ",
        "ãģŁ"
      ],
      [
        "å¯",
        "Ħ"
      ],
      [
        "å£",
        "«"
      ],
      [
        "ãģĦ",
        "ãģĨ"
      ],
      [
        "è¿·",
        "äºŃ"
      ],
      [
        "ãģĦ",
        "ãģ«"
      ],
      [
        "åħ",
        "Ħ"
      ],
      [
        "ãĤĴæ",
        "Ĭ"
      ],
      [
        "ãĥ",
        "¡"
      ],
      [
        "§",
        "ĭ"
      ],
      [
        "å¤",
        "±"
      ],
      [
        "æĿ±",
        "äº¬"
      ],
      [
        "ä¸",
        "¡"
      ],
      [
        "èª",
        "ŀ"
      ],
      [
        "ãĢ",
        "Ģ"
      ],
      [
        "å",
        "¡"
      ],
      [
        "ãģĦ",
        "ãĤį"
      ],
      [
        "è",
        "¥"
      ],
      [
        "ãĤ",
        "Ĩ"
      ],
      [
        "ãģ®",
        "ãģ«"
      ],
      [
        "ãĤĴ",
        "ãĤĤ"
      ],
      [
        "º",
        "ãģĹãģ¦"
      ],
      [
        "åı",
        "¤"
      ],
      [
        "ãģ®ç",
        "ľ"
      ],
      [
        "æİ",
        "Ľ"
      ],
      [
        "èĮ",
        "¶"
      ],
      [
        "ãĤĴ",
        "ãģ¤"
      ],
      [
        "ãģĿãĤĮ",
        "ãģ§"
      ],
      [
        "ãģ®",
        "ãģŁãĤģ"
      ],
      [
        "ãĤĬ",
        "ãģ«"
      ],
      [
        "æľ",
        "ī"
      ],
      [
        "ãĤĴæ",
        "Įģ"
      ],
      [
        "è§",
        "£"
      ],
      [
        "å¯",
        "Ŀ"
      ],
      [
        "éĢĻ",
        "åħ¥"
      ],
      [
        "ç",
        "ĸ"
      ],
      [
        "æĻ",
        "º"
      ],
      [
        "é",
        "Ĭ"
      ],
      [
        "åĩº",
        "ãģĻ"
      ],
      [
        "ãĤī",
        "ãģļ"
      ],
      [
        "æ¬¡",
        "éĥİ"
      ],
      [
        "å¼",
        "·"
      ],
      [
        "éĸ",
        "¢"
      ],
      [
        "åĮ",
        "ĸ"
      ],
      [
        "ãģª",
        "ãģ£ãģ¦"
      ],
      [
        "ä½",
        "į"
      ],
      [
        "ãģ®",
        "ãĤĪãģĨãģ«"
      ],
      [
        "æģ",
        "Ĳ"
      ],
      [
        "åĩº",
        "ãģŁ"
      ],
      [
        "ãģ®é",
        "Ģ"
      ],
      [
        "ãģł",
        "ãģ¨"
      ],
      [
        "ãģı",
        "ãĤĮ"
      ],
      [
        "å¬",
        "¢"
      ],
      [
        "æĹ¥",
        "ãģ«"
      ],
      [
        "è",
        "ĸ"
      ],
      [
        "ãģĤ",
        "ãĤįãģĨ"
      ],
      [
        "çĶ",
        "»"
      ],
      [
        "ç",
        "ł"
      ],
      [
        "ä¹",
        "Ĺ"
      ],
      [
        "éĿ",
        "Ĵ"
      ],
      [
        "åįĥ",
        "ä»£"
      ],
      [
        "è",
        "ģ"
      ],
      [
        "é",
        "Ń"
      ],
      [
        "ãģ®é",
        "ģ"
      ],
      [
        "å",
        "ĺ"
      ],
      [
        "æľ",
        "Ģ"
      ],
      [
        "ãģ®æī",
        "Ģ"
      ],
      [
        "ãģ£",
        "ãģ¡"
      ],
      [
        "ãģ¿",
        "ãĤĵãģª"
      ],
      [
        "ç©",
        "º"
      ],
      [
        "è«",
        "ĩ"
      ],
      [
        "è«¸",
        "æĪ¸"
      ],
      [
        "çĹ",
        "ħ"
      ],
      [
        "ãĤģ",
        "ãĤĭ"
      ],
      [
        "åį",
        "Ĭ"
      ],
      [
        "ãĤĴè",
        "¨"
      ],
      [
        "ç",
        "Ĭ"
      ],
      [
        "ãģķ",
        "ãĤĮãģŁ"
      ],
      [
        "æ",
        "Ĩ"
      ],
      [
        "é£",
        "²"
      ],
      [
        "ãĤ",
        "¯"
      ],
      [
        "åħĪçĶŁ",
        "ãģ¯"
      ],
      [
        "é",
        "¹"
      ],
      [
        "åĥķ",
        "ãģ¯"
      ],
      [
        "ãģĶãģ¨",
        "ãģı"
      ],
      [
        "ãģ®å",
        "°"
      ],
      [
        "ãģ«ç",
        "«ĭ"
      ],
      [
        "è",
        "·"
      ],
      [
        "èŃ",
        "°"
      ],
      [
        "ãĤĴè¦ĭ",
        "ãģ¦"
      ],
      [
        "ãĥ",
        "į"
      ],
      [
        "ç§ģ",
        "ãģĮ"
      ],
      [
        "èª",
        "Ń"
      ],
      [
        "è¡Į",
        "ãģ£ãģ¦"
      ],
      [
        "ãĤĤ",
        "ãģĹ"
      ],
      [
        "ãģ©ãģĨ",
        "ãģĹãģ¦"
      ],
      [
        "ãģ®",
        "ä¸Ģ"
      ],
      [
        "ä»",
        "®"
      ],
      [
        "ãģĺ",
        "ãģ¦"
      ],
      [
        "ãģ«",
        "å¯¾"
      ],
      [
        "ãģĭ",
        "ãģªãģĦ"
      ],
      [
        "ãģĵãģ¨",
        "ãĤĴ"
      ],
      [
        "ãģĿãĤĮ",
        "ãĤĴ"
      ],
      [
        "ãģį",
        "ãģ¾ãģĹãģŁ"
      ],
      [
        "æ",
        "ı"
      ],
      [
        "è",
        "¬"
      ],
      [
        "ä¸ī",
        "åįĥä»£"
      ],
      [
        "åĪ",
        "©"
      ],
      [
        "å³",
        "¶"
      ],
      [
        "æ",
        "¶"
      ],
      [
        "ç",
        "ĩ"
      ],
      [
        "ãģ®æ",
        "¯"
      ],
      [
        "ãģ®",
        "ãĤĤ"
      ],
      [
        "èĩ",
        "³"
      ],
      [
        "çª",
        "ģ"
      ],
      [
        "ãģ¾ãĤĭ",
        "ãģ§"
      ],
      [
        "æĢĿ",
        "ãĤı"
      ],
      [
        "éļ",
        "Ľ"
      ],
      [
        "å¥¥",
        "ãģķãĤĵ"
      ],
      [
        "é¹",
        "¿"
      ],
      [
        "ãģĹ",
        "ãģ°"
      ],
      [
        "Ħ",
        "Ł"
      ],
      [
        "ãģ®åŃ",
        "Ĳ"
      ],
      [
        "éĿ",
        "ŀ"
      ],
      [
        "ãģĦ",
        "ãģªãģĦ"
      ],
      [
        "åº",
        "§"
      ],
      [
        "å¯Ĵ",
        "æľĪ"
      ],
      [
        "ãģ«",
        "åħ¥"
      ],
      [
        "ãĤĤãģ®",
        "ãģĮ"
      ],
      [
        "ãģĭ",
        "ãģ¨"
      ],
      [
        "æ³",
        "ķ"
      ],
      [
        "åŃ",
        "Ĺ"
      ],
      [
        "æµ",
        "ģ"
      ],
      [
        "æĪ",
        "ĳ"
      ],
      [
        "åĮ",
        "»"
      ],
      [
        "æ¥",
        "½"
      ],
      [
        "å",
        "Ĵ"
      ],
      [
        "ãĤĤ",
        "ãģªãģı"
      ],
      [
        "æ®",
        "µ"
      ],
      [
        "ãģ®",
        "ãĤĴ"
      ],
      [
        "åħ¨",
        "ãģı"
      ],
      [
        "ãĤĴæ",
        "İ"
      ],
      [
        "æ",
        "¡"
      ],
      [
        "ãģĦ",
        "ãĤī"
      ],
      [
        "ãģĤ",
        "ãģĤ"
      ],
      [
        "éł",
        "ĥ"
      ],
      [
        "ç¾",
        "©"
      ],
      [
        "ãĤĤãģ®",
        "ãģł"
      ],
      [
        "©",
        "±"
      ],
      [
        "ãģĶ",
        "ãģĸ"
      ],
      [
        "çĻ½",
        "ãģĦ"
      ],
      [
        "ç",
        "ģ"
      ],
      [
        "ãģĦãģ¦",
        "ãģĦãĤĭ"
      ],
      [
        "ãģ®",
        "ãģªãģĦ"
      ],
      [
        "ãģ¡ãĤĩ",
        "ãģ£ãģ¨"
      ],
      [
        "ãĤĴ",
        "ãģĭ"
      ],
      [
        "å¦",
        "»"
      ],
      [
        "çķ",
        "ª"
      ],
      [
        "ãģ®å",
        "Ī"
      ],
      [
        "ä»",
        "ĸ"
      ],
      [
        "æļ",
        "Ĺ"
      ],
      [
        "å¼ķ",
        "ãģį"
      ],
      [
        "æ",
        "º"
      ],
      [
        "ãĤı",
        "ãģĸ"
      ],
      [
        "èª",
        "¿"
      ],
      [
        "ãģª",
        "ãĤĵãģł"
      ],
      [
        "ãģı",
        "ãĤĭ"
      ],
      [
        "ç",
        "¿"
      ],
      [
        "ãģĿ",
        "ãģ®è"
      ],
      [
        "æĢ",
        "§"
      ],
      [
        "æ§ĺ",
        "ãģ«"
      ],
      [
        "ç",
        "®"
      ],
      [
        "å¥½",
        "ãģĦ"
      ],
      [
        "çĭ",
        "¬"
      ],
      [
        "åŃĲ",
        "ãģ¯"
      ],
      [
        "é",
        "Ł³"
      ],
      [
        "ãĢģ",
        "ãĢĮ"
      ],
      [
        "åı",
        "³"
      ],
      [
        "è¡",
        "¨"
      ],
      [
        "åıĸ",
        "ãĤĬ"
      ],
      [
        "ãģ¡ãĤĥ",
        "ãĤĵ"
      ],
      [
        "æŀ",
        "ľ"
      ],
      [
        "æķ",
        "°"
      ],
      [
        "ãĤī",
        "ãĤĵ"
      ],
      [
        "ãĢ",
        "İ"
      ],
      [
        "ãĢ",
        "ı"
      ],
      [
        "ãģ¯",
        "ãģĦ"
      ],
      [
        "éģ",
        "£"
      ],
      [
        "ãĤĴç",
        "Ł¥"
      ],
      [
        "ãģ¨",
        "è¦ĭ"
      ],
      [
        "ãģ®å",
        "º"
      ],
      [
        "å¾",
        "Ģ"
      ],
      [
        "è¨",
        "ĺ"
      ],
      [
        "ãĤĤ",
        "ãģ£ãģ¨"
      ],
      [
        "é",
        "º"
      ],
      [
        "å¹³",
        "å²¡"
      ],
      [
        "é",
        "ī"
      ],
      [
        "é",
        "ľ"
      ],
      [
        "ãģ®ãģ§",
        "ãģĹãģŁ"
      ],
      [
        "èŃ",
        "¦"
      ],
      [
        "ãģ¨æĢĿ",
        "ãģ£ãģŁ"
      ],
      [
        "ãģ®å¤",
        "§"
      ],
      [
        "åº",
        "ĥ"
      ],
      [
        "µ",
        "Ĳ"
      ],
      [
        "å®",
        "¿"
      ],
      [
        "å®",
        "¤"
      ],
      [
        "ãģŃ",
        "ãģĪ"
      ],
      [
        "æĢĿ",
        "ãģĦ"
      ],
      [
        "åİ",
        "»"
      ],
      [
        "åĲĽ",
        "ãģĮ"
      ],
      [
        "ãĥ",
        "ģ"
      ],
      [
        "å®",
        "ļ"
      ],
      [
        "è",
        "¢"
      ],
      [
        "ķ",
        "Ļ"
      ],
      [
        "ãģ£",
        "ãģĹãĤĥ"
      ],
      [
        "è§",
        "Ĵ"
      ],
      [
        "è",
        "Ĺ"
      ],
      [
        "åı",
        "ĭ"
      ],
      [
        "ãģªãģı",
        "ãģ¦"
      ],
      [
        "ãĤı",
        "ãģŁãģı"
      ],
      [
        "ãģ®å",
        "½"
      ],
      [
        "æĥ",
        "³"
      ],
      [
        "é¦¬",
        "é¹¿"
      ],
      [
        "ãĥ",
        "Ħ"
      ],
      [
        "ãģ®ä¸Ń",
        "ãģ«"
      ],
      [
        "é¼",
        "»"
      ],
      [
        "èĢ",
        "ģ"
      ],
      [
        "éł",
        "¼"
      ],
      [
        "æķ",
        "ħ"
      ],
      [
        "ãģ£ãģ",
        "±"
      ],
      [
        "ãģ¾",
        "ãģĦ"
      ],
      [
        "ãģĵ",
        "ãģ®æ"
      ],
      [
        "ä¹",
        "ħ"
      ],
      [
        "ãģ§ãģĻ",
        "ãģĭ"
      ],
      [
        "å®",
        "Ī"
      ],
      [
        "ãĤıãģŁãģı",
        "ãģĹ"
      ],
      [
        "çµ",
        "Į"
      ],
      [
        "é»",
        "Ļ"
      ],
      [
        "è",
        "Ħ"
      ],
      [
        "æĸ¹",
        "ãģĮ"
      ],
      [
        "æ",
        "§ĭ"
      ],
      [
        "èª",
        "¬"
      ],
      [
        "æ·",
        "±"
      ],
      [
        "ç",
        "ħ"
      ],
      [
        "èį",
        "ī"
      ],
      [
        "ãģĤ",
        "ãĤĮ"
      ],
      [
        "åĽ",
        "°"
      ],
      [
        "ãģ®",
        "ãģĤãĤĭ"
      ],
      [
        "åħ",
        "µ"
      ],
      [
        "ãģ«",
        "éĢ"
      ],
      [
        "ãĤĪãĤĬ",
        "ãĤĤ"
      ],
      [
        "ãĢĤ",
        "âĢķâĢķ"
      ],
      [
        "ãĤĴè",
        "²"
      ],
      [
        "çĤ",
        "º"
      ],
      [
        "ãģĮ",
        "ãģĤãģ£ãģŁ"
      ],
      [
        "âĢ¦âĢ¦",
        "ãĢį"
      ],
      [
        "æĻĤ",
        "ãģ«"
      ],
      [
        "åĦ",
        "ª"
      ],
      [
        "ãģĦ",
        "ãģªãģĮãĤī"
      ],
      [
        "æ¥",
        "µ"
      ],
      [
        "éħ",
        "į"
      ],
      [
        "ï¼Ł",
        "ãĢį"
      ],
      [
        "æĹ©",
        "ãģı"
      ],
      [
        "Ģ",
        "ĥ"
      ],
      [
        "ãĤĴæ",
        "Į"
      ],
      [
        "å¿",
        "µ"
      ],
      [
        "ãģĭãĤĤçŁ¥",
        "ãĤĮãģªãģĦ"
      ],
      [
        "åŃ",
        "ĺ"
      ],
      [
        "èĢĥ",
        "ãģĪ"
      ],
      [
        "å",
        "Ł"
      ],
      [
        "ãģŁ",
        "ãĤĬ"
      ],
      [
        "ãĤ",
        "¿"
      ],
      [
        "åĲ",
        "ī"
      ],
      [
        "µ",
        "·"
      ],
      [
        "Ĺ",
        "¥"
      ],
      [
        "ãĥ",
        "£"
      ],
      [
        "ä»",
        "¶"
      ],
      [
        "ãģ¨ãģĦ",
        "ãģ£ãģŁ"
      ],
      [
        "ãĤī",
        "ãģ¬"
      ],
      [
        "è¡",
        "Ľ"
      ],
      [
        "è",
        "±"
      ],
      [
        "é",
        "¨"
      ],
      [
        "ãģĦ",
        "ãģ¾"
      ],
      [
        "ãģ®è",
        "¡"
      ],
      [
        "ãģ«è",
        "¿"
      ],
      [
        "ãģ®å",
        "£"
      ],
      [
        "ãģ©",
        "ãĤĵãģª"
      ],
      [
        "åģ",
        "´"
      ],
      [
        "ãģ£",
        "ãģį"
      ],
      [
        "æī",
        "ĵ"
      ],
      [
        "æ´",
        "ĭ"
      ],
      [
        "ç",
        "¢"
      ],
      [
        "çı",
        "¾"
      ],
      [
        "éĿ",
        "Ļ"
      ],
      [
        "è¶",
        "Ĭ"
      ],
      [
        "ç",
        "²"
      ],
      [
        "ãģ®",
        "ãĤĪãģĨãģª"
      ],
      [
        "éĽ",
        "¢"
      ],
      [
        "æĺİ",
        "æĻº"
      ],
      [
        "æ",
        "ĩ"
      ],
      [
        "ãĤī",
        "ãĤĮãĤĭ"
      ],
      [
        "ãģ£ãģ¦",
        "æĿ¥ãģŁ"
      ],
      [
        "éĽ",
        "»"
      ],
      [
        "ãĤ",
        "ª"
      ],
      [
        "é»",
        "Ħ"
      ],
      [
        "åĲĳ",
        "ãģĨ"
      ],
      [
        "ãģ¨æĢĿ",
        "ãģ£ãģ¦"
      ],
      [
        "è¥",
        "¿"
      ],
      [
        "ãģĤ",
        "ãģ¨"
      ],
      [
        "è¦ĭ",
        "ãģĪ"
      ],
      [
        "äºĳ",
        "ãģ£ãģŁ"
      ],
      [
        "ãģ¹",
        "ãģ¦"
      ],
      [
        "ä¸İ",
        "æ¬¡éĥİ"
      ],
      [
        "ãģ®å¿",
        "ĥ"
      ],
      [
        "ãģĵ",
        "ãģ®ç"
      ],
      [
        "éģ",
        "ĭ"
      ],
      [
        "å¿",
        "ĺ"
      ],
      [
        "ãĤĵãģ§",
        "ãģĦãĤĭ"
      ],
      [
        "èµ",
        "°"
      ],
      [
        "ãĤĦ",
        "ãĤĬ"
      ],
      [
        "ãĥ",
        "ī"
      ],
      [
        "ãģĹ",
        "ãĤį"
      ],
      [
        "ãģĻ",
        "ãĤĮãģ°"
      ],
      [
        "å¥",
        "ĩ"
      ],
      [
        "ãģ²",
        "ãģ¨"
      ],
      [
        "ãģ«",
        "ãĤĪ"
      ],
      [
        "åħ",
        "±"
      ],
      [
        "åĬ",
        "ł"
      ],
      [
        "åĭ",
        "¢"
      ],
      [
        "ãĥ",
        "ķ"
      ],
      [
        "ãģ®æ",
        "°"
      ],
      [
        "¯",
        "ãĤĴ"
      ],
      [
        "èĶ",
        "µ"
      ],
      [
        "ãģķ",
        "ãĤĮãģ¦"
      ],
      [
        "ãģ®å",
        "ĩ"
      ],
      [
        "ãģ¾ãģĽ",
        "ãĤĵãģ§"
      ],
      [
        "è³",
        "ª"
      ],
      [
        "é¡",
        "Į"
      ],
      [
        "èĭ",
        "¥"
      ],
      [
        "æľ",
        "į"
      ],
      [
        "ä½",
        "ı"
      ],
      [
        "ãģĺãĤĥãģªãģĦ",
        "ãģĭ"
      ],
      [
        "æ",
        "¢"
      ],
      [
        "å¥",
        "´"
      ],
      [
        "çĻ",
        "º"
      ],
      [
        "ãģ®",
        "çĶŁ"
      ],
      [
        "ãģŁ",
        "ãĤĭ"
      ],
      [
        "ãģ¨äºĳ",
        "ãģ£ãģŁ"
      ],
      [
        "åĲ",
        "¹"
      ],
      [
        "äºĭ",
        "ãĤĤ"
      ],
      [
        "ãģļ",
        "ãģ«"
      ],
      [
        "ä¼",
        "Ŀ"
      ],
      [
        "èĥ",
        "½"
      ],
      [
        "ãģªãģĳãĤĮãģ°",
        "ãģªãĤī"
      ],
      [
        "çĮ",
        "«"
      ],
      [
        "åĥ",
        "ı"
      ],
      [
        "ãģĨãģ¡",
        "ãģ«"
      ],
      [
        "åĪ",
        "»"
      ],
      [
        "ä¼",
        "¼"
      ],
      [
        "ãģ®",
        "ãĤĪãģĨ"
      ],
      [
        "ä¸",
        "ĩ"
      ],
      [
        "ãģ®é",
        "ļ"
      ],
      [
        "èĪ",
        "ŀ"
      ],
      [
        "å½",
        "¢"
      ],
      [
        "ãģ¨äºĳ",
        "ãģ£ãģ¦"
      ],
      [
        "ãĤĴæ",
        "ī"
      ],
      [
        "Ħ",
        "ı"
      ],
      [
        "ãģ®æ",
        "Ń"
      ],
      [
        "ç",
        "¹"
      ],
      [
        "è¨Ģ",
        "èĳī"
      ],
      [
        "æ²",
        "¢"
      ],
      [
        "æ´",
        "»"
      ],
      [
        "ãĤĴ",
        "åıĹ"
      ],
      [
        "äº",
        "¤"
      ],
      [
        "æľ",
        "Ŀ"
      ],
      [
        "å·",
        "¦"
      ],
      [
        "ãģ®å¥",
        "³"
      ],
      [
        "ãģ«",
        "ãģĤãĤĭ"
      ],
      [
        "å®",
        "®"
      ],
      [
        "ãģ¾",
        "ãģĤ"
      ],
      [
        "åĽ",
        "º"
      ],
      [
        "ä»¥",
        "ä¸Ĭ"
      ],
      [
        "½",
        "®"
      ],
      [
        "ãģĪ",
        "ãģ°"
      ],
      [
        "é£Ľ",
        "ãģ³"
      ],
      [
        "ãģĴ",
        "ãģ¦"
      ],
      [
        "ãĥŃ",
        "ãĤ¹"
      ],
      [
        "åĽ",
        "³"
      ],
      [
        "¹",
        "´"
      ],
      [
        "é³",
        "´"
      ],
      [
        "åĿ",
        "Ĳ"
      ],
      [
        "ä»Ĭ",
        "åº¦"
      ],
      [
        "ãĤĵ",
        "ãģ©"
      ],
      [
        "å",
        "¨"
      ],
      [
        "ãģ©ãģĨ",
        "ãĤĤ"
      ],
      [
        "ãĤ¸ãĥ§ãĥĲãĥ³ãĥĭ",
        "ãģ¯"
      ],
      [
        "ãģĹãģ°",
        "ãĤīãģı"
      ],
      [
        "ãģ¾ãģĽãĤĵãģ§",
        "ãģĹãģŁ"
      ],
      [
        "æĿ",
        "¾"
      ],
      [
        "ãģĺ",
        "ãģŁ"
      ],
      [
        "èģŀ",
        "ãģĦãģŁ"
      ],
      [
        "ãģ£ãģ¦",
        "ãĤĭ"
      ],
      [
        "åĩºæĿ¥",
        "ãĤĭ"
      ],
      [
        "ãĤĴ",
        "å¾Ĺ"
      ],
      [
        "ãģķ",
        "ãģĨ"
      ],
      [
        "åı",
        "°"
      ],
      [
        "ãģ®é",
        "ĩ"
      ],
      [
        "å",
        "¢"
      ],
      [
        "ãģĿãģĨ",
        "ãģł"
      ],
      [
        "ãģĵãģ¨",
        "ãģ¯"
      ],
      [
        "ãĤĬ",
        "ãĤĥ"
      ],
      [
        "å¤",
        "ª"
      ],
      [
        "è»",
        "½"
      ],
      [
        "ãĤ",
        "Ń"
      ],
      [
        "éļ",
        "ł"
      ],
      [
        "ãģ¯",
        "ãģļ"
      ],
      [
        "ãģ®å",
        "¸"
      ],
      [
        "çĶ",
        "±"
      ],
      [
        "å¯",
        "¸"
      ],
      [
        "ãģ®å¾",
        "¡"
      ],
      [
        "ãģĵ",
        "ãģ®è"
      ],
      [
        "å¹",
        "¸"
      ],
      [
        "åŃĲ",
        "ãģĮ"
      ],
      [
        "Ģ",
        "Ŀ"
      ],
      [
        "ãģ§",
        "ãģį"
      ],
      [
        "ä»",
        "¤"
      ],
      [
        "æ®",
        "º"
      ],
      [
        "æµ",
        "·"
      ],
      [
        "ç",
        "Ĩ"
      ],
      [
        "å¾",
        "³"
      ],
      [
        "å®",
        "¢"
      ],
      [
        "å¿",
        "ľ"
      ],
      [
        "ä»ķ",
        "æĸ¹"
      ],
      [
        "ä½ķ",
        "ãģłãģĭ"
      ],
      [
        "æ®",
        "ĭ"
      ],
      [
        "ãģĦ",
        "ãĤĪ"
      ],
      [
        "ãģĤ",
        "ãĤī"
      ],
      [
        "ãĤĴè¦ĭ",
        "ãģŁ"
      ],
      [
        "ãģ®éł",
        "Ń"
      ],
      [
        "èĲ½",
        "ãģ¡"
      ],
      [
        "ãĤ",
        "³"
      ],
      [
        "å¯",
        "º"
      ],
      [
        "æ²",
        "»"
      ],
      [
        "ç¦",
        "°"
      ],
      [
        "é§",
        "Ħ"
      ],
      [
        "ãģ®é",
        "ĥ"
      ],
      [
        "ãĤĦ",
        "ãĤĭ"
      ],
      [
        "ç",
        "¯"
      ],
      [
        "æĢĿ",
        "èŃ°"
      ],
      [
        "åįģ",
        "äºĮ"
      ],
      [
        "ãĥ¡",
        "ãĥŃãĤ¹"
      ],
      [
        "éĽ",
        "£"
      ],
      [
        "ãģ®è¨",
        "Ģ"
      ],
      [
        "ãĥł",
        "ãĥĳ"
      ],
      [
        "ãĥį",
        "ãĥ«"
      ],
      [
        "æ",
        "į"
      ],
      [
        "ãĤĴ",
        "éĢ"
      ],
      [
        "åº",
        "Ń"
      ],
      [
        "çµ",
        "¦"
      ],
      [
        "åĨ",
        "Ĩ"
      ],
      [
        "é¦",
        "ĸ"
      ],
      [
        "çĶ",
        "³"
      ],
      [
        "æĢ",
        "ª"
      ],
      [
        "å¯",
        "Ł"
      ],
      [
        "ä¸",
        "ģ"
      ],
      [
        "ãģ®ä¸Ĭ",
        "ãģ«"
      ],
      [
        "éħ",
        "Ĵ"
      ],
      [
        "é",
        "ª"
      ],
      [
        "ãģ®å¦",
        "Ĥ"
      ],
      [
        "ãĤ«",
        "ãĥłãĥĳ"
      ],
      [
        "ãĥįãĥ«",
        "ãĥ©"
      ],
      [
        "ãĤ«ãĥłãĥĳ",
        "ãĥįãĥ«ãĥ©"
      ],
      [
        "ä¸",
        "¦"
      ],
      [
        "å¾",
        "ĵ"
      ],
      [
        "ãģ¡",
        "ãĤī"
      ],
      [
        "ãģı",
        "ãģ¨"
      ],
      [
        "ãģ®å",
        "į"
      ],
      [
        "å°",
        "ĭ"
      ],
      [
        "ãģ«è",
        "ģŀ"
      ],
      [
        "ç",
        "ĥ"
      ],
      [
        "ä¿",
        "Ĥ"
      ],
      [
        "è¾¼",
        "ãĤĵãģ§"
      ],
      [
        "ãģ¦",
        "ãĤĤ"
      ],
      [
        "ãģ¤",
        "ãĤĤ"
      ],
      [
        "ãģ®åĲ",
        "į"
      ],
      [
        "å¦Ļ",
        "ãģª"
      ],
      [
        "ãģĦ",
        "ãģıãĤī"
      ],
      [
        "ãģĭ",
        "ãģĹ"
      ],
      [
        "ãģ¨æĢĿ",
        "ãģĨ"
      ],
      [
        "ãģĸ",
        "ãĤĭ"
      ],
      [
        "æ",
        "¤"
      ],
      [
        "ãĤĬ",
        "ãģ§"
      ],
      [
        "ãĤĬ",
        "ãģ¾ãģĻ"
      ],
      [
        "ãĤĪãģĨ",
        "ãģ¨"
      ],
      [
        "ãĥı",
        "ãĥı"
      ],
      [
        "ãģĤ",
        "ãģ¾ãĤĬ"
      ],
      [
        "å®",
        "¹"
      ],
      [
        "ãĤı",
        "ãģªãģĦ"
      ],
      [
        "å¿",
        "«"
      ],
      [
        "é¤",
        "¨"
      ],
      [
        "ä»®",
        "éĿ¢"
      ],
      [
        "ãģ¦",
        "ãģ¦"
      ],
      [
        "ãģĪ",
        "ãģĪ"
      ],
      [
        "åĪ",
        "¤"
      ],
      [
        "ãģ®æĸ¹",
        "ãģ¸"
      ],
      [
        "ä»¥",
        "ãģ¦"
      ],
      [
        "éĻ",
        "Ĳ"
      ],
      [
        "å",
        "Ķ"
      ],
      [
        "Ĥ",
        "º"
      ],
      [
        "è¨",
        "Ī"
      ],
      [
        "ãĥ",
        "ŀ"
      ],
      [
        "åīį",
        "ãģ«"
      ],
      [
        "å¤§",
        "å¤ī"
      ],
      [
        "çª",
        "ĵ"
      ],
      [
        "ãģ«",
        "åĲĳ"
      ],
      [
        "ĭ",
        "æ±Ł"
      ],
      [
        "ãģĳ",
        "ãģªãģĦ"
      ],
      [
        "å©",
        "¦"
      ],
      [
        "çĤ",
        "¹"
      ],
      [
        "æĦ",
        "Ľ"
      ],
      [
        "åĩº",
        "ãĤĭ"
      ],
      [
        "ç¾İ",
        "ç¦°"
      ],
      [
        "ä¸ĭ",
        "ãģķãģĦ"
      ],
      [
        "ãģ®å¤",
        "ĸ"
      ],
      [
        "ãģĭ",
        "ãģĦ"
      ],
      [
        "èĢĥ",
        "ãģĪãģ¦"
      ],
      [
        "è",
        "Ļ"
      ],
      [
        "äºĭ",
        "ãģ«"
      ],
      [
        "éģ",
        "Ĭ"
      ],
      [
        "ãĤĲ",
        "ãģŁ"
      ],
      [
        "ãĤĴç",
        "ľ"
      ],
      [
        "å¸°",
        "ãģ£ãģ¦"
      ],
      [
        "ãģ¨ãģĵãĤį",
        "ãģĮ"
      ],
      [
        "åĽ",
        "£"
      ],
      [
        "çĦ¡",
        "è«ĸ"
      ],
      [
        "åĢ",
        "Ĵ"
      ],
      [
        "ãģĦ",
        "ãģ£ãģŁ"
      ],
      [
        "åĪĿ",
        "ä»£"
      ],
      [
        "æĬ",
        "ľ"
      ],
      [
        "ãĤĦ",
        "ãģĮ"
      ],
      [
        "éĻ",
        "Ħ"
      ],
      [
        "æĿ",
        "ĳ"
      ],
      [
        "èī",
        "¯"
      ],
      [
        "é³",
        "¥"
      ],
      [
        "ãģĤ",
        "ãĤĵãģª"
      ],
      [
        "ãĤĵãģ§ãģĻ",
        "ãģĭ"
      ],
      [
        "ãĤĵãģł",
        "ãģĭãĤī"
      ],
      [
        "æ©",
        "Ł"
      ],
      [
        "çģ",
        "«"
      ],
      [
        "äº",
        "ķ"
      ],
      [
        "ãĥ",
        "¬"
      ],
      [
        "ä¸Ń",
        "ãģ«"
      ],
      [
        "çµ",
        "Ĥ"
      ],
      [
        "åħ",
        "¬"
      ],
      [
        "å°",
        "¾"
      ],
      [
        "çī",
        "ĩ"
      ],
      [
        "ãģ®è",
        "ĩ"
      ],
      [
        "ãģ¨ãģĦ",
        "ãģ£ãģ¦"
      ],
      [
        "åľ",
        "Ł"
      ],
      [
        "æ",
        "»"
      ],
      [
        "ãģ«",
        "èĩ³"
      ],
      [
        "æĺ",
        "Ķ"
      ],
      [
        "ãģ®åĩ",
        "º"
      ],
      [
        "ãģĦãģ¦",
        "ãģĦãģŁ"
      ],
      [
        "Ļ",
        "º"
      ],
      [
        "ãĤĬ",
        "ãģ¨"
      ],
      [
        "æľ",
        "Ľ"
      ],
      [
        "åľ",
        "Ĵ"
      ],
      [
        "ç¨",
        "®"
      ],
      [
        "çİ",
        "Ħ"
      ],
      [
        "ãģĭ",
        "ãģı"
      ],
      [
        "ä¸ī",
        "åįģ"
      ],
      [
        "ãĤ",
        "¨"
      ],
      [
        "ãģ®æ¯",
        "Ĵ"
      ],
      [
        "åį",
        "ĺ"
      ],
      [
        "ãģ©ãģĨ",
        "ãģĭ"
      ],
      [
        "ç",
        "±"
      ],
      [
        "ãĤĴ",
        "éĸĭ"
      ],
      [
        "ãģ®éĢ",
        "ļ"
      ],
      [
        "ï¼",
        "Ī"
      ],
      [
        "ï¼",
        "ī"
      ],
      [
        "ãģĿãģĵ",
        "ãģ§"
      ],
      [
        "é¤",
        "Ĭ"
      ],
      [
        "èħ",
        "¹"
      ],
      [
        "ãģĦ",
        "ãģ¨"
      ],
      [
        "åı",
        "į"
      ],
      [
        "ç¤",
        "¾"
      ],
      [
        "ãģĬ",
        "å¬¢"
      ],
      [
        "ãģ®ãģł",
        "ãģĭãĤī"
      ],
      [
        "äºĶ",
        "éĥİ"
      ],
      [
        "è²",
        "°"
      ],
      [
        "ãĤĴèª",
        "Ń"
      ],
      [
        "ãģ¯",
        "ä½ķ"
      ],
      [
        "ãĤĴ",
        "ä»¥ãģ¦"
      ],
      [
        "ãģĺãĤĥ",
        "ãģĤãĤĬãģ¾ãģĽãĤĵ"
      ],
      [
        "å",
        "ŀ"
      ],
      [
        "ãĤ",
        "¦"
      ],
      [
        "çĶŁ",
        "ãģį"
      ],
      [
        "åĴ",
        "Į"
      ],
      [
        "ãģ¯",
        "ãĤĬ"
      ],
      [
        "ãģ®ä¸Ń",
        "ãģ§"
      ],
      [
        "ç½",
        "ª"
      ],
      [
        "¥",
        "µ"
      ],
      [
        "äºĮ",
        "äººãģ¯"
      ],
      [
        "ãĤĴè",
        "¿"
      ],
      [
        "éĻ",
        "į"
      ],
      [
        "æ",
        "¹"
      ],
      [
        "ãģļ",
        "ãĤĭ"
      ],
      [
        "ãģ¤ãģ¦",
        "ãĤĲãĤĭ"
      ],
      [
        "Ĥ",
        "ª"
      ],
      [
        "å¾",
        "Ĵ"
      ],
      [
        "åĲ¾è¼©",
        "ãģ¯"
      ],
      [
        "æľ¬",
        "å½ĵ"
      ],
      [
        "ãģ®",
        "ãģĶãģ¨ãģı"
      ],
      [
        "ãģ«",
        "ãģ¤ãģĦãģ¦"
      ],
      [
        "å",
        "´"
      ],
      [
        "éĢ",
        "²"
      ],
      [
        "æīĢ",
        "ãģ¸"
      ],
      [
        "æĮ",
        "¯"
      ],
      [
        "äºĮ",
        "ãģ¤"
      ],
      [
        "åľ",
        "¨"
      ],
      [
        "ãĤī",
        "ãģĹãģı"
      ],
      [
        "è³",
        "Ĭ"
      ],
      [
        "è¡Į",
        "ãģį"
      ],
      [
        "çķ",
        "Ļ"
      ],
      [
        "åĩºæĿ¥",
        "ãģªãģĦ"
      ],
      [
        "ç¶",
        "ļ"
      ],
      [
        "ãģ®çľ",
        "¼"
      ],
      [
        "ãģ§",
        "ãģĤãĤįãģĨ"
      ],
      [
        "ä»",
        "»"
      ],
      [
        "å½ĵ",
        "æĻĤ"
      ],
      [
        "åĢ",
        "Ł"
      ],
      [
        "å«",
        "Į"
      ],
      [
        "éĽ",
        "Ĩ"
      ],
      [
        "å©",
        "ļ"
      ],
      [
        "ãĤ",
        "Ŀ"
      ],
      [
        "ãģ®",
        "ãģ¿"
      ],
      [
        "ãģį",
        "ãģ£ãģ¨"
      ],
      [
        "ãģĬ",
        "æ¯į"
      ],
      [
        "å¥³",
        "ãģ¯"
      ],
      [
        "æ°Ĺ",
        "ãģ®æ¯Ĵ"
      ],
      [
        "ä¸",
        "¸"
      ],
      [
        "ãĤĴæ",
        "ĭ"
      ],
      [
        "æł",
        "¹"
      ],
      [
        "Ĺ",
        "ħ"
      ],
      [
        "å¿ĥ",
        "éħį"
      ],
      [
        "æĦı",
        "åĳ³"
      ],
      [
        "ç¸",
        "ģ"
      ],
      [
        "åĵ",
        "ģ"
      ],
      [
        "å°ı",
        "ãģķ"
      ],
      [
        "ãĤī",
        "ãģªãģĭãģ£ãģŁ"
      ],
      [
        "ç«ĭ",
        "ãģ¡"
      ],
      [
        "èĬ",
        "±"
      ],
      [
        "å¤",
        "¢"
      ],
      [
        "æŃ",
        "¦"
      ],
      [
        "ãģ¨äºĳ",
        "ãģµ"
      ],
      [
        "åı",
        "Ĥ"
      ],
      [
        "éĢ",
        "Ķ"
      ],
      [
        "æĹ¥",
        "æľ¬"
      ],
      [
        "å¿ħ",
        "ãģļ"
      ],
      [
        "çĸ",
        "ĳ"
      ],
      [
        "ãģ¾",
        "ãģĪ"
      ],
      [
        "çĽ¸",
        "æīĭ"
      ],
      [
        "ãģ®ãģŁãĤģ",
        "ãģ«"
      ],
      [
        "è¡",
        "ĵ"
      ],
      [
        "ãģ«è",
        "¨"
      ],
      [
        "é¡Ķ",
        "ãĤĴ"
      ],
      [
        "ãģ®ä¸",
        "į"
      ],
      [
        "ãģ®",
        "ãģĨãģ¡"
      ],
      [
        "ãģ¾",
        "ãģ§ãĤĤ"
      ],
      [
        "éĩĳ",
        "ä»®éĿ¢"
      ],
      [
        "æ¨",
        "ª"
      ],
      [
        "éĿŀ",
        "å¸¸"
      ],
      [
        "ãģ«å¯¾",
        "ãģĹãģ¦"
      ],
      [
        "ãĤī",
        "ãģĦ"
      ],
      [
        "ãģı",
        "ãĤĮãģŁ"
      ],
      [
        "ãģ®è",
        "ª"
      ],
      [
        "ä»ķæĸ¹",
        "ãģĮãģªãģĦ"
      ],
      [
        "ãģ®",
        "ãģ¨"
      ],
      [
        "ãģ«",
        "ä¸Ģ"
      ],
      [
        "ãģĮ",
        "ä¸Ģ"
      ],
      [
        "ãĤĦãģĮ",
        "ãģ¦"
      ],
      [
        "ç",
        "³"
      ],
      [
        "ãģª",
        "ãģĬ"
      ],
      [
        "ä¸į",
        "æĢĿèŃ°"
      ],
      [
        "çķ",
        "Į"
      ],
      [
        "åĸ",
        "ľ"
      ],
      [
        "éĢ",
        "ĥ"
      ],
      [
        "å¼",
        "ģ"
      ],
      [
        "æĺ",
        "¯"
      ],
      [
        "æĬ",
        "ĺ"
      ],
      [
        "è»",
        "Ĵ"
      ],
      [
        "å®Ł",
        "ãģ¯"
      ],
      [
        "ãģĨãģ¨",
        "ãģĨ"
      ],
      [
        "æ",
        "Ĵ"
      ],
      [
        "ãģĹ",
        "ãģªãģĮãĤī"
      ],
      [
        "æŃ",
        "¿"
      ],
      [
        "åŃĲ",
        "ä¾Ľ"
      ],
      [
        "éķ·",
        "ãģĦ"
      ],
      [
        "æĶ",
        "¿"
      ],
      [
        "ãģ¯",
        "ä¸Ģ"
      ],
      [
        "ãĤĦ",
        "ãģ¯ãĤĬ"
      ],
      [
        "ãĤı",
        "ãĤĭ"
      ],
      [
        "åĪĨ",
        "ãĤīãģªãģĦ"
      ],
      [
        "å¿ĥ",
        "æĮģ"
      ],
      [
        "ãģĹãģĭ",
        "ãĤĤ"
      ],
      [
        "ãĤ·",
        "ãĥ£"
      ],
      [
        "ãģ¤",
        "ãģĭ"
      ],
      [
        "ç§ģ",
        "ãģ«ãģ¯"
      ],
      [
        "è²",
        "·"
      ],
      [
        "çĩ",
        "Ī"
      ],
      [
        "æĻĤ",
        "éĸĵ"
      ],
      [
        "ãģĤãĤĬ",
        "ãģ¾ãģĻ"
      ],
      [
        "æ",
        "¿"
      ],
      [
        "ãģ«",
        "ãĤĦ"
      ],
      [
        "ãģ®ä¸Ń",
        "ãģ¸"
      ],
      [
        "å°ĭ",
        "ãģŃ"
      ],
      [
        "ı",
        "¡"
      ],
      [
        "ãĤį",
        "ãģĹãģĦ"
      ],
      [
        "ģ",
        "Ĳ"
      ],
      [
        "ãģª",
        "ãģľ"
      ],
      [
        "èĩªåĪĨ",
        "ãģĮ"
      ],
      [
        "ãģ®å",
        "ĳ"
      ],
      [
        "æ¯",
        "İ"
      ],
      [
        "è¾¼",
        "ãĤĵãģł"
      ],
      [
        "éŃ",
        "Ķ"
      ],
      [
        "äºĶçĻ¾",
        "ãģ¯"
      ],
      [
        "ãģĭ",
        "ãģŃ"
      ],
      [
        "ãģ®å",
        "ĭ"
      ],
      [
        "æł",
        "¼"
      ],
      [
        "ãģªãĤĵ",
        "ãģĭ"
      ],
      [
        "ãģ®éĥ",
        "¨"
      ],
      [
        "åħ",
        "·"
      ],
      [
        "ãĢħ",
        "å®®"
      ],
      [
        "ł",
        "´"
      ],
      [
        "ä½ķ",
        "ãģ§ãĤĤ"
      ],
      [
        "éĽ",
        "ĳ"
      ],
      [
        "ãģ®å£",
        "°"
      ],
      [
        "ãģ®ç",
        "Ĥº"
      ],
      [
        "ãģ¿",
        "ãģŁãģĦ"
      ],
      [
        "ãĤĴç",
        "ĿĢ"
      ],
      [
        "éĥ¨",
        "å±ĭ"
      ],
      [
        "çªģ",
        "çĦ¶"
      ],
      [
        "ãģł",
        "ãĤĪ"
      ],
      [
        "ãģĿãģĨ",
        "ãģª"
      ],
      [
        "ä½ķ",
        "ãĤĤ"
      ],
      [
        "ãģĪãģ¦",
        "ãģĦãĤĭ"
      ],
      [
        "çĦ¡",
        "ãģĦ"
      ],
      [
        "æİ",
        "¢"
      ],
      [
        "ãģ¤",
        "ãģı"
      ],
      [
        "åŃĲ",
        "ãĤĴ"
      ],
      [
        "å¤§",
        "åĪĨ"
      ],
      [
        "èĬ",
        "¸"
      ],
      [
        "ãģ®é",
        "Ľ"
      ],
      [
        "éģķ",
        "ãģªãģĦ"
      ],
      [
        "å£",
        "²"
      ],
      [
        "æ¸",
        "Ī"
      ],
      [
        "ãģı",
        "ãģªãģ£ãģŁ"
      ],
      [
        "å·",
        "®"
      ],
      [
        "è",
        "Ĵ"
      ],
      [
        "ãģ¾",
        "ãģ£ãģ¦"
      ],
      [
        "ãģĵãģ®å",
        "¹´"
      ],
      [
        "ãĤĬ",
        "ãģ¦"
      ],
      [
        "ãĤı",
        "ãĤĮãģ¦"
      ],
      [
        "ãģ®ä¸",
        "ī"
      ],
      [
        "äºĮ",
        "ä¸ī"
      ],
      [
        "èŃ",
        "ĺ"
      ],
      [
        "æĬ½æĸİ",
        "ãģ¯"
      ],
      [
        "ãģ¨",
        "ãģĨãģ¨ãģĨ"
      ],
      [
        "éĩİ",
        "ãĢħå®®"
      ],
      [
        "ãģ£ãģ±",
        "ãĤĬ"
      ],
      [
        "ãģĹ",
        "ãģį"
      ],
      [
        "æĢ",
        "Ĵ"
      ],
      [
        "æĺ",
        "¨"
      ],
      [
        "æīĭ",
        "ãĤĴ"
      ],
      [
        "èĥ",
        "¸"
      ],
      [
        "åı",
        "¥"
      ],
      [
        "å®",
        "ĺ"
      ],
      [
        "é",
        "Ĺ"
      ],
      [
        "ãģĬ",
        "åīį"
      ],
      [
        "å¦",
        "Ĥ"
      ],
      [
        "ãģĭ",
        "ãĤĭ"
      ],
      [
        "į",
        "ãģ³"
      ],
      [
        "åı",
        "Ĭ"
      ],
      [
        "äºĭ",
        "ãģĮãģĤãĤĭ"
      ],
      [
        "éĸĵ",
        "ãģ«"
      ],
      [
        "è",
        "ı"
      ],
      [
        "ãģ£ãģ¦",
        "ãģ¯"
      ],
      [
        "å½¼",
        "çŃī"
      ],
      [
        "åĿ",
        "Ĭ"
      ],
      [
        "ãĤĴ",
        "ä¸Ģ"
      ],
      [
        "ãĥ",
        "ľ"
      ],
      [
        "ç§",
        "°"
      ],
      [
        "å®",
        "ħ"
      ],
      [
        "æī",
        "¿"
      ],
      [
        "ãģ®å°",
        "ı"
      ],
      [
        "ãĤĬ",
        "è¿Ķ"
      ],
      [
        "ãģķ",
        "ãģ£ãģį"
      ],
      [
        "ãģ«ãģª",
        "ãĤĬ"
      ],
      [
        "æĤª",
        "ãģĦ"
      ],
      [
        "å¼",
        "¥"
      ],
      [
        "çŁ",
        "¢"
      ],
      [
        "ãģ®å",
        "·"
      ],
      [
        "æĢ",
        "ĸ"
      ],
      [
        "ãģ®ä¸",
        "ĸ"
      ],
      [
        "æ³",
        "¨"
      ],
      [
        "ãģĤ",
        "ãģ®"
      ],
      [
        "æ°",
        "¸"
      ],
      [
        "éĢ",
        "£"
      ],
      [
        "æ´",
        "¾"
      ],
      [
        "æĻ",
        "©"
      ],
      [
        "ãģ«",
        "ãģĹãģŁ"
      ],
      [
        "ãģĮ",
        "ãģĤãģ£ãģ¦"
      ],
      [
        "ãģ®æ",
        "Ħı"
      ],
      [
        "å¸",
        "Ń"
      ],
      [
        "å§ĭ",
        "ãĤģãģ¦"
      ],
      [
        "ãģ®æ§ĺ",
        "ãģª"
      ],
      [
        "ãģ®æ",
        "Ŀ"
      ],
      [
        "ãģ®æ°",
        "Ĺ"
      ],
      [
        "æĺ",
        "ĵ"
      ],
      [
        "ãģ®å",
        "Ĩ"
      ],
      [
        "ãģ®å",
        "Ĭ"
      ],
      [
        "éĿ¢",
        "çĽ®"
      ],
      [
        "æ±",
        "ºãģĹãģ¦"
      ],
      [
        "ãģĶãģĸ",
        "ãģĦãģ¾ãģĻ"
      ],
      [
        "¨",
        "ª"
      ],
      [
        "¶",
        "³"
      ],
      [
        "ãģĵ",
        "ãģ£ãģ¡"
      ],
      [
        "ä»",
        "Ļ"
      ],
      [
        "ãĥ¼",
        "ãĥĪ"
      ],
      [
        "å",
        "Ļ"
      ],
      [
        "ãģª",
        "ãģķ"
      ],
      [
        "è¦",
        "³"
      ],
      [
        "éĥ",
        "½"
      ],
      [
        "äº",
        "¡"
      ],
      [
        "èĩª",
        "çĦ¶"
      ],
      [
        "åįģ",
        "ä¸Ģ"
      ],
      [
        "éī",
        "Ħ"
      ],
      [
        "ãģ®è¨Ģ",
        "èĳī"
      ],
      [
        "ãģ«",
        "ãģ¨"
      ],
      [
        "æĢ¥",
        "ãģ«"
      ],
      [
        "ãģĤãĤĬ",
        "ãģ¾ãģĹãģŁ"
      ],
      [
        "ãĤĤ",
        "ãģĤãĤĭ"
      ],
      [
        "ç§ģ",
        "éģĶ"
      ],
      [
        "æĻĤ",
        "ãģ¯"
      ],
      [
        "çĭ",
        "Ĥ"
      ],
      [
        "ç¤",
        "¼"
      ],
      [
        "ãģ«",
        "çĽ¸"
      ],
      [
        "ãĤĤ",
        "ãģ®ãģ§ãģĤãĤĭ"
      ],
      [
        "ãģ®å",
        "Ĥ"
      ],
      [
        "ç§",
        "Ģ"
      ],
      [
        "ãģ®é",
        "Ŀ"
      ],
      [
        "èĩ",
        "´"
      ],
      [
        "åº",
        "ķ"
      ],
      [
        "ãģĵãĤĮ",
        "ãģĮ"
      ],
      [
        "çĹ",
        "Ľ"
      ],
      [
        "ãģ®ç",
        "Ľ"
      ],
      [
        "åĢ",
        "Ļ"
      ],
      [
        "æ¸",
        "ħ"
      ],
      [
        "ãĥĳ",
        "ãĥ³"
      ],
      [
        "èĸ",
        "Ħ"
      ],
      [
        "çĬ",
        "¶"
      ],
      [
        "ãģ®å¦Ĥ",
        "ãģı"
      ],
      [
        "ãģ§",
        "ãģªãģĦ"
      ],
      [
        "ãģ®å",
        "Ľ"
      ],
      [
        "å¹",
        "¾"
      ],
      [
        "åĨ",
        "·"
      ],
      [
        "ä¸»",
        "äººãģĮ"
      ],
      [
        "æ³",
        "¢"
      ],
      [
        "å©",
        "Ĩ"
      ],
      [
        "ãģ¨",
        "åĲĮãģĺ"
      ],
      [
        "åı",
        "·"
      ],
      [
        "è¦ĭ",
        "ãĤĭ"
      ],
      [
        "ãĤĤãģ®",
        "ãĤĴ"
      ],
      [
        "ãģĿãģĨ",
        "ãģ§ãģĤãĤĭ"
      ],
      [
        "ãĤıãģŁãģıãģĹ",
        "ãģ¯"
      ],
      [
        "æĻĤ",
        "ãĢħ"
      ],
      [
        "ãģĹ",
        "ãĤĪãģĨ"
      ],
      [
        "æĦŁ",
        "ãģĺ"
      ],
      [
        "ç",
        "į"
      ],
      [
        "ĭ",
        "¦"
      ],
      [
        "å¤§",
        "ãģį"
      ],
      [
        "ä¹",
        "±"
      ],
      [
        "è²",
        "´"
      ],
      [
        "çķ",
        "°"
      ],
      [
        "å¿ħ",
        "è¦ģ"
      ],
      [
        "ãģ«æ",
        "İ"
      ],
      [
        "éĽ",
        "¨"
      ],
      [
        "ãģĹãģ¾",
        "ãģĨ"
      ],
      [
        "ãģĦãĤī",
        "ãģ£ãģĹãĤĥ"
      ],
      [
        "éª",
        "¨"
      ],
      [
        "åĳ",
        "Ĭ"
      ],
      [
        "ä¸Ĭ",
        "ãģĮ"
      ],
      [
        "ç·",
        "ļ"
      ],
      [
        "ãģªãĤĵ",
        "ãģ¦"
      ],
      [
        "ãĤĨ",
        "ãĤĭ"
      ],
      [
        "ãĤı",
        "ãĤĮãģŁ"
      ],
      [
        "ãĤĴç",
        "«ĭ"
      ],
      [
        "ãģ®æ",
        "Ĺ¥"
      ],
      [
        "ãģ®éł",
        "ĥ"
      ],
      [
        "ãģªãģĭãģ£ãģŁ",
        "ãģ®ãģ§ãģĻ"
      ],
      [
        "æķ",
        "¬"
      ],
      [
        "ãģ¨",
        "ãģį"
      ],
      [
        "ãĥ",
        "¤"
      ],
      [
        "ãģ«è",
        "ª"
      ],
      [
        "æ¸",
        "ĭæ±Ł"
      ],
      [
        "ãģĭãĤĤçŁ¥",
        "ãĤĮ"
      ],
      [
        "åĩº",
        "æĿ¥ãģŁ"
      ],
      [
        "ç§ģ",
        "ãĤĴ"
      ],
      [
        "é«",
        "ª"
      ],
      [
        "ãģªãģıãģ¦",
        "ãģ¯"
      ],
      [
        "ãģ®ç",
        "´"
      ],
      [
        "çµ",
        "¶"
      ],
      [
        "ãģķ",
        "ãģĤ"
      ],
      [
        "ãĤĴæ",
        "į"
      ],
      [
        "æ¯",
        "Ľ"
      ],
      [
        "ç",
        "ĵ"
      ],
      [
        "ãģĭ",
        "ãģĪ"
      ],
      [
        "åı£",
        "ãĤĴ"
      ],
      [
        "ç«",
        "¹"
      ],
      [
        "ä»Ĭåº¦",
        "ãģ¯"
      ],
      [
        "ãģ®èĩ",
        "ª"
      ],
      [
        "ãģ«",
        "ãģĤ"
      ],
      [
        "ãģ®è",
        "ĥ"
      ],
      [
        "ãģ®æĸ¹",
        "ãģĮ"
      ],
      [
        "å¸°",
        "ãģ£ãģŁ"
      ],
      [
        "½",
        "è»Ĭ"
      ],
      [
        "ãģŁ",
        "ãģ£ãģŁ"
      ],
      [
        "ãĥ",
        "»"
      ],
      [
        "å¼",
        "ĺ"
      ],
      [
        "æĪ",
        "ĸ"
      ],
      [
        "ä¾",
        "Ŀ"
      ],
      [
        "åł",
        "±"
      ],
      [
        "ãģ®åħ",
        "Ī"
      ],
      [
        "ãĤĤãģ®",
        "ãģĭ"
      ],
      [
        "ãĤĴè¦ĭ",
        "ãĤĭãģ¨"
      ],
      [
        "åł",
        "Ĥ"
      ],
      [
        "æ©",
        "ĭ"
      ],
      [
        "ãģ®å",
        "±"
      ],
      [
        "åı",
        "«"
      ],
      [
        "ãĤĦ",
        "ãģ£ãģ±ãĤĬ"
      ],
      [
        "éĩ",
        "Ī"
      ],
      [
        "ãģ¿",
        "ãģŁ"
      ],
      [
        "ä¾",
        "¿"
      ],
      [
        "ç¬¬",
        "ä¸Ģ"
      ],
      [
        "ãģ¤",
        "ãģĦ"
      ],
      [
        "äºĭ",
        "ä»¶"
      ],
      [
        "æīĢ",
        "ãģ«"
      ],
      [
        "ãģ¾",
        "ãģļ"
      ],
      [
        "ä¹",
        "ĭ"
      ],
      [
        "é¡Ķ",
        "ãĤĴãģĹãģ¦"
      ],
      [
        "æ£",
        "Ĵ"
      ],
      [
        "é»Ĵ",
        "ãģĦ"
      ],
      [
        "ãģ",
        "¢"
      ],
      [
        "ãģ¦",
        "ãģĦãģŁ"
      ],
      [
        "ãģĹãģŁ",
        "ãĤī"
      ],
      [
        "ãģķ",
        "ãĤĮãĤĭ"
      ],
      [
        "æ³",
        "£"
      ],
      [
        "Ī",
        "¶"
      ],
      [
        "ãģĹ",
        "ãģ«"
      ],
      [
        "äº",
        "Ī"
      ],
      [
        "ãģ«ãģª",
        "ãģ£ãģ¦ãģĦãģŁ"
      ],
      [
        "å¥¥",
        "ãģķãĤĵãģ¯"
      ],
      [
        "ãģ®æ§ĺ",
        "ãģ«"
      ],
      [
        "é»Ħ",
        "éĩĳä»®éĿ¢"
      ],
      [
        "æĸ",
        "Ļ"
      ],
      [
        "ãĤĵãģ§",
        "ãģĦãģŁ"
      ],
      [
        "è",
        "º"
      ],
      [
        "é",
        "Ī"
      ],
      [
        "ķ",
        "°"
      ],
      [
        "é¡",
        "ŀ"
      ],
      [
        "ãģ£",
        "ãģĭãĤĬ"
      ],
      [
        "çŃ",
        "Ĩ"
      ],
      [
        "åıĸ",
        "ãģ£ãģ¦"
      ],
      [
        "åķı",
        "é¡Į"
      ],
      [
        "è·",
        "¯"
      ],
      [
        "è",
        "Ŀ"
      ],
      [
        "ãģ®ãģł",
        "ãģĮ"
      ],
      [
        "ãģłãģĳ",
        "ãģ¯"
      ],
      [
        "ãģĺãĤĥãģĤãĤĬãģ¾ãģĽãĤĵ",
        "ãģĭ"
      ],
      [
        "ãģł",
        "ãģŃ"
      ],
      [
        "éĿ¢",
        "çĻ½ãģĦ"
      ],
      [
        "çĪ¶",
        "ãģ¯"
      ],
      [
        "åı",
        "Ķ"
      ],
      [
        "è¦ĭ",
        "ãģĪãĤĭ"
      ],
      [
        "æīĭ",
        "ç´Ļ"
      ],
      [
        "çŃ",
        "Ī"
      ],
      [
        "èĢħ",
        "ãģ¯"
      ],
      [
        "ãģ®éĸĵ",
        "ãģ«"
      ],
      [
        "ä¸Ī",
        "å¤«"
      ],
      [
        "ãģĽ",
        "ãĤīãĤĮãģŁ"
      ],
      [
        "ç©",
        "į"
      ],
      [
        "³",
        "åľĴ"
      ],
      [
        "ãĥ",
        "Ĩ"
      ],
      [
        "ãģ£ãģ¦",
        "ãģĦãģ¾ãģĹãģŁ"
      ],
      [
        "å½",
        "±"
      ],
      [
        "å¿",
        "Ĺ"
      ],
      [
        "å£°",
        "ãģ§"
      ],
      [
        "æ¡",
        "Ī"
      ],
      [
        "¨",
        "æĭ"
      ],
      [
        "ãĤĴ",
        "ãģĹãģ¦ãģĦãĤĭ"
      ],
      [
        "ãģ¤",
        "ãģį"
      ],
      [
        "ä»Ĭ",
        "ãģ¾ãģ§"
      ],
      [
        "ãģ®éĢļ",
        "ãĤĬ"
      ],
      [
        "¨æĭ",
        "¶"
      ],
      [
        "ãģ¨",
        "ãģĨ"
      ],
      [
        "ãĤī",
        "ãģĨ"
      ],
      [
        "ãģĿãĤĮ",
        "ãģ§ãĤĤ"
      ],
      [
        "å¼",
        "±"
      ],
      [
        "ãģ¨",
        "çŃĶ"
      ],
      [
        "ãģ®ç",
        "¾"
      ],
      [
        "ãģ«æ",
        "Ĭ"
      ],
      [
        "åĳ",
        "ĳ"
      ],
      [
        "ãĤĭ",
        "ãģ«"
      ],
      [
        "äºº",
        "ãģ«"
      ],
      [
        "è¿",
        "Ħ"
      ],
      [
        "æģ",
        "¯"
      ],
      [
        "ä»",
        "ı"
      ],
      [
        "ãģĵãĤĮ",
        "ãģĭãĤī"
      ],
      [
        "ãģ²",
        "ãģ©"
      ],
      [
        "ãĥ«",
        "ãĥĳãĥ³"
      ],
      [
        "ãģ®å",
        "ľ"
      ],
      [
        "è»",
        "¢"
      ],
      [
        "ãģĦãģ¦",
        "ãĤĤ"
      ],
      [
        "è¡Į",
        "ãģĭ"
      ],
      [
        "Ń",
        "Ķ"
      ],
      [
        "ãĤĴ",
        "ãģ¨"
      ],
      [
        "åĩ",
        "¦"
      ],
      [
        "ãĤ·ãĥ£",
        "ãĥĦ"
      ],
      [
        "å·",
        "²"
      ],
      [
        "æļ",
        "®"
      ],
      [
        "ãģŁãĤģ",
        "ãģ«"
      ],
      [
        "é",
        "Ł"
      ],
      [
        "ãģªãģı",
        "ãģªãģ£ãģŁ"
      ],
      [
        "æĸ°",
        "èģŀ"
      ],
      [
        "ãģĦ",
        "ãģ¯"
      ],
      [
        "äºº",
        "ãĤĴ"
      ],
      [
        "ãģ§ãģĻ",
        "ãģŃ"
      ],
      [
        "ãģ®ãģł",
        "ãĤįãģĨ"
      ],
      [
        "ãĥ¼",
        "ãĥ«"
      ],
      [
        "æģ",
        "ĭ"
      ],
      [
        "å«",
        "ģ"
      ],
      [
        "é©ļ",
        "ãĤį"
      ],
      [
        "ãģ®è",
        "Ĭ"
      ],
      [
        "ãģ¼",
        "ãģı"
      ],
      [
        "æ¢",
        "ħ"
      ],
      [
        "åįģ",
        "äºĶ"
      ],
      [
        "çĨ",
        "±"
      ],
      [
        "ãģĹ",
        "ãģ¾ãģĻ"
      ],
      [
        "ãģ¨",
        "ä¸»äººãģ¯"
      ],
      [
        "ãģ®è",
        "£"
      ],
      [
        "è",
        "Ľ"
      ],
      [
        "ãģŁ",
        "ãģ¾"
      ],
      [
        "ãĥ",
        "Ķ"
      ],
      [
        "èĪ",
        "İ"
      ],
      [
        "ãģĬãĤĮ",
        "ãģ¯"
      ],
      [
        "ãģĮ",
        "ãģĦãģĦ"
      ],
      [
        "ãģ®å",
        "§"
      ],
      [
        "ãģµ",
        "ãģ¨"
      ],
      [
        "æ¸",
        "¡"
      ],
      [
        "é§Ħ",
        "çĽ®"
      ],
      [
        "½",
        "ãģĦ"
      ],
      [
        "è",
        "Ĩ"
      ],
      [
        "ãģ«",
        "ãģĻãĤĭ"
      ],
      [
        "ç§",
        "»"
      ],
      [
        "ãģĦãģ¤",
        "ãĤĤ"
      ],
      [
        "ãģ©ãģĨãģĹãģ¦",
        "ãĤĤ"
      ],
      [
        "åĦª",
        "åĸĦ"
      ],
      [
        "ãĤĴçľ",
        "º"
      ],
      [
        "ãģ®å",
        "¼"
      ],
      [
        "ç«ĭ",
        "ãģ¦"
      ],
      [
        "åį",
        "Ĵ"
      ],
      [
        "ãģĿãĤĮ",
        "ãģ«"
      ],
      [
        "äºĮ",
        "å¹´"
      ],
      [
        "ãģ®å¾",
        "Į"
      ],
      [
        "åº",
        "Ĺ"
      ],
      [
        "å§ĭ",
        "ãĤģãģŁ"
      ],
      [
        "ãĤĴè²",
        "·"
      ],
      [
        "ãģ¤ãĤĤ",
        "ãĤĬ"
      ],
      [
        "ãģª",
        "ãģķãģĦ"
      ],
      [
        "ãĤĴ",
        "é£Ł"
      ],
      [
        "åł",
        "Ģ"
      ],
      [
        "å£°",
        "ãģĮ"
      ],
      [
        "ãģķ",
        "ãĤĮ"
      ],
      [
        "å·",
        "»"
      ],
      [
        "åĪĩ",
        "ãĤĬ"
      ],
      [
        "æĤ",
        "²"
      ],
      [
        "ç§ģ",
        "ãĤĤ"
      ],
      [
        "å·",
        "¥"
      ],
      [
        "ä¼",
        "ĳ"
      ],
      [
        "çļ",
        "Ĩ"
      ],
      [
        "ãĤĴãĤĤ",
        "ãģ£ãģ¦"
      ],
      [
        "ãģı",
        "ãĤĬ"
      ],
      [
        "ãģĹãģ¦",
        "ãĤĤ"
      ],
      [
        "ãĤĴæ",
        "ĦŁ"
      ],
      [
        "éĽ",
        "²"
      ],
      [
        "å°ĳ",
        "ãĢħ"
      ],
      [
        "æ²",
        "³"
      ],
      [
        "ãģªãĤĭ",
        "ãģ»ãģ©"
      ],
      [
        "è£",
        "ı"
      ],
      [
        "ãģĮ",
        "ãģŁ"
      ],
      [
        "ãģ£ãģŁ",
        "ãĤĬ"
      ],
      [
        "æ²",
        "Ļ"
      ],
      [
        "ãģªãģĭ",
        "ãģªãģĭ"
      ],
      [
        "æĶ",
        "¾"
      ],
      [
        "ãģĦ",
        "ãģł"
      ],
      [
        "ãģĦ",
        "ãĤı"
      ],
      [
        "ãģĭ",
        "ãģĹãģĦ"
      ],
      [
        "ãģ¾",
        "ãģĹãĤĩãģĨ"
      ],
      [
        "ãģĪ",
        "ãģªãģĦ"
      ],
      [
        "ãģ®è",
        "©±"
      ],
      [
        "åĽ",
        "ŀ"
      ],
      [
        "ãĤĤãģ®",
        "ãģłãģĭãĤī"
      ],
      [
        "ãģ§ãģĻ",
        "ãģĭãĤī"
      ],
      [
        "çĦ¶",
        "ãģ¨ãģĹãģ¦"
      ],
      [
        "é",
        "ĺ"
      ],
      [
        "éĢ",
        "Ģ"
      ],
      [
        "ĭ",
        "åº¦"
      ],
      [
        "ãģĻ",
        "ãģĵ"
      ],
      [
        "è¡",
        "Ģ"
      ],
      [
        "éĬ",
        "Ģ"
      ],
      [
        "°",
        "·"
      ],
      [
        "å¸",
        "ĥ"
      ],
      [
        "éĩ",
        "Į"
      ],
      [
        "ãĤĮãģ¦",
        "ãģĦãĤĭ"
      ],
      [
        "å°ĳãģĹ",
        "ãĤĤ"
      ],
      [
        "ãĥ",
        "Ľ"
      ],
      [
        "ãģĿ",
        "ãĤĬãĤĥ"
      ],
      [
        "ãģ®æ",
        "Ģ"
      ],
      [
        "ãĤĴæ",
        "Ľ¸"
      ],
      [
        "ãĤĴæ",
        "ĢĿ"
      ],
      [
        "éĢ",
        "¢"
      ],
      [
        "éĻ",
        "¸"
      ],
      [
        "åħĪçĶŁ",
        "ãģĮ"
      ],
      [
        "ãģ¤",
        "ãģ¾ãĤĬ"
      ],
      [
        "æĹ",
        "ı"
      ],
      [
        "å±",
        "Ī"
      ],
      [
        "ãĥ",
        "´"
      ],
      [
        "ãĤĪ",
        "ãģĹ"
      ],
      [
        "ä¸ĸ",
        "éĸĵ"
      ],
      [
        "ãģ®è",
        "º«"
      ],
      [
        "ãģ®éĥ¨",
        "å±ĭ"
      ],
      [
        "ãģ«",
        "ãģĦãĤĭ"
      ],
      [
        "çľ",
        "ł"
      ],
      [
        "åº§",
        "æķ·"
      ],
      [
        "ãĤī",
        "ãģĹ"
      ],
      [
        "æľ",
        "«"
      ],
      [
        "æľ",
        "Ł"
      ],
      [
        "çĽ",
        "Ĺ"
      ],
      [
        "ãģªãĤī",
        "ãģ¬"
      ],
      [
        "ãģĤãģªãģŁ",
        "ãģ¯"
      ],
      [
        "ãģ£",
        "ãģ¡ãĤĥ"
      ],
      [
        "ãģ¾",
        "ãģĹãģ¦"
      ],
      [
        "ä¸Ģ",
        "åº¦"
      ],
      [
        "ãĤĴæ",
        "®"
      ],
      [
        "æĶ",
        "¯"
      ],
      [
        "ãģ¾",
        "ãģ£ãģŁ"
      ],
      [
        "ãģ®è",
        "¿"
      ],
      [
        "ãģ",
        "´"
      ],
      [
        "è¡",
        "£"
      ],
      [
        "éĽ",
        "ª"
      ],
      [
        "çĦ¶",
        "ãģĹ"
      ],
      [
        "æŃ»",
        "ãģ¬"
      ],
      [
        "ãģ¼",
        "ãĤĵ"
      ],
      [
        "ä¸Ģ",
        "å¯¸"
      ],
      [
        "ç§ģ",
        "ãģ«"
      ],
      [
        "éļ",
        "İ"
      ],
      [
        "èģŀ",
        "ãģį"
      ],
      [
        "èģ",
        "·"
      ],
      [
        "æĩ",
        "¸"
      ],
      [
        "ãĥ",
        "ĭ"
      ],
      [
        "ãģ®å",
        "¢"
      ],
      [
        "ãģĿãģĨ",
        "ãģ«"
      ],
      [
        "ãģĶ",
        "ãĤĵ"
      ],
      [
        "æħ",
        "®"
      ],
      [
        "èĤ",
        "ī"
      ],
      [
        "ãĤĴæĮģ",
        "ãģ£ãģ¦"
      ],
      [
        "ãģªãĤī",
        "ãģªãģĦ"
      ],
      [
        "å®Ł",
        "éļĽ"
      ],
      [
        "ĳ",
        "ãģĦ"
      ],
      [
        "ãĤı",
        "ãģĭãĤī"
      ],
      [
        "æŃ",
        "¢"
      ],
      [
        "æ¶",
        "Ī"
      ],
      [
        "åĲ",
        "¦"
      ],
      [
        "å¤",
        "ķ"
      ],
      [
        "ãģ©",
        "ãĤĤ"
      ],
      [
        "æľ",
        "ª"
      ],
      [
        "ãģ¸",
        "è¡Įãģ£ãģ¦"
      ],
      [
        "æĿ¥",
        "ãģ¾ãģĹãģŁ"
      ],
      [
        "äºĳ",
        "ãģĦãģ¾ãģĹãģŁ"
      ],
      [
        "è»",
        "į"
      ],
      [
        "åĪ",
        "ĳ"
      ],
      [
        "åº",
        "Ĭ"
      ],
      [
        "æ§ĺ",
        "åŃĲ"
      ],
      [
        "éĻ",
        "¢"
      ],
      [
        "çľŁ",
        "éĿ¢çĽ®"
      ],
      [
        "ãģ¢",
        "ãĤĦ"
      ],
      [
        "ä¼",
        "¯"
      ],
      [
        "ãģĵãĤĮ",
        "ãĤĴ"
      ],
      [
        "ãĤ",
        "µ"
      ],
      [
        "ãģ®è",
        "Ģ"
      ],
      [
        "ãģ»",
        "ãĤĵãģ¨"
      ],
      [
        "ä¸į",
        "åı¯"
      ],
      [
        "æĨ",
        "¶"
      ],
      [
        "ãĥ¡ãĥŃãĤ¹",
        "ãģ¯"
      ],
      [
        "ç",
        "Ŀ"
      ],
      [
        "ãģ¨",
        "ãģĬ"
      ],
      [
        "äºĭ",
        "å®Ł"
      ],
      [
        "è¦ĭ",
        "ãģ¦"
      ],
      [
        "ãģ¸",
        "åĩºãģ¦"
      ],
      [
        "æ°Ĺ",
        "ãģ§"
      ],
      [
        "ãģ§ãģĻ",
        "ãĤĪ"
      ],
      [
        "ãģ¨æĢĿ",
        "ãģĨãģ¨"
      ],
      [
        "æŀ",
        "³åľĴ"
      ],
      [
        "é¨",
        "ĵ"
      ],
      [
        "ãģ®",
        "ãģķ"
      ],
      [
        "ä½ķ",
        "ãģ¨ãĤĤ"
      ],
      [
        "ç",
        "ŀ"
      ],
      [
        "ãģ«",
        "åĩº"
      ],
      [
        "ãĤĦ",
        "ãģ£ãģ¦"
      ],
      [
        "æķ",
        "µ"
      ],
      [
        "è²",
        "ŀ"
      ],
      [
        "å¦",
        "¹"
      ],
      [
        "æħ",
        "¢"
      ],
      [
        "çľ¼",
        "ãĤĴ"
      ],
      [
        "ç¦",
        "ı"
      ],
      [
        "å¸",
        "½"
      ],
      [
        "éĥ",
        "·"
      ],
      [
        "ç´",
        "Ħ"
      ],
      [
        "ãģªãģĭ",
        "ãģ¤ãģŁ"
      ],
      [
        "æĿ±",
        "é¢¨"
      ],
      [
        "ãģ¯",
        "ãĤĤãģĨ"
      ],
      [
        "ãģı",
        "ãģªãģ£ãģ¦"
      ],
      [
        "ä¸ī",
        "äºº"
      ],
      [
        "ãģª",
        "ãģĤ"
      ],
      [
        "ãģĬå¬¢",
        "ãģķãĤĵ"
      ],
      [
        "ãģĵ",
        "ãģĿ"
      ],
      [
        "ãģ®é",
        "«"
      ],
      [
        "ãģ®ç",
        "©"
      ],
      [
        "éĤ",
        "ª"
      ],
      [
        "ãĤĴ",
        "ãģĬ"
      ],
      [
        "ä»",
        "°"
      ],
      [
        "ãĤĤãģ£ãģ¨",
        "ãĤĤ"
      ],
      [
        "è¡Ľ",
        "éĸĢ"
      ],
      [
        "ãĤ",
        "»"
      ],
      [
        "èĩª",
        "èº«"
      ],
      [
        "è¼",
        "ª"
      ],
      [
        "æŀ",
        "ļ"
      ],
      [
        "ãģĦãģŁ",
        "ãģĮ"
      ],
      [
        "ãģĴ",
        "ãģŁ"
      ],
      [
        "èģŀ",
        "ãģĦãģ¦"
      ],
      [
        "ãģ®åı",
        "£"
      ],
      [
        "æĿ",
        "İ"
      ],
      [
        "ãģ®ç",
        "µ"
      ],
      [
        "ãģ¨ãģĦãģĨ",
        "ãģ®ãģ¯"
      ],
      [
        "åİ",
        "Ń"
      ],
      [
        "ä»ĺ",
        "ãģĳ"
      ],
      [
        "ç½®",
        "ãģĦãģ¦"
      ],
      [
        "ãĤĬ",
        "ãģĮ"
      ],
      [
        "è¦",
        "§"
      ],
      [
        "ç´",
        "ł"
      ],
      [
        "å¥³",
        "ãģĮ"
      ],
      [
        "ãģ¨è¦ĭ",
        "ãģĪãģ¦"
      ],
      [
        "é",
        "ı¡"
      ],
      [
        "ãģĵ",
        "ãģ®æĻĤ"
      ],
      [
        "ãģ®ç",
        "ī"
      ],
      [
        "å°",
        "Ĩ"
      ],
      [
        "å²",
        "©"
      ],
      [
        "çİ",
        "ĭ"
      ],
      [
        "ãģ«ãģĬ",
        "ãģĦãģ¦"
      ],
      [
        "ãģ«å¯¾",
        "ãģĻãĤĭ"
      ],
      [
        "åĪ",
        "Ĺ"
      ],
      [
        "åĩº",
        "ãģĹ"
      ],
      [
        "ãģ®é",
        "Ł³"
      ],
      [
        "å§",
        "¿"
      ],
      [
        "éĩĳ",
        "çĶ°"
      ],
      [
        "æĽ¸",
        "ãģĦãģ¦"
      ],
      [
        "æŃ³",
        "ãģ§"
      ],
      [
        "ãģ®ãģ§",
        "ãģ¯ãģªãģĦ"
      ],
      [
        "ãĤĴè",
        "Ģĥ"
      ],
      [
        "éļ",
        "ı"
      ],
      [
        "ç«ĭ",
        "ãģ£ãģ¦"
      ],
      [
        "æ°ĹãģĮ",
        "ä»ĺ"
      ],
      [
        "åī",
        "²"
      ],
      [
        "ãģ®çľ",
        "Ł"
      ],
      [
        "æº",
        "Ģ"
      ],
      [
        "®",
        "éĢļ"
      ],
      [
        "è",
        "¸"
      ],
      [
        "ãĥ",
        "Ĺ"
      ],
      [
        "è©",
        "©"
      ],
      [
        "æ±",
        "ł"
      ],
      [
        "å§",
        "ī"
      ],
      [
        "ãģ®ä¸Ĭ",
        "ãģ¸"
      ],
      [
        "é¦",
        "³"
      ],
      [
        "ä»ķ",
        "èĪŀ"
      ],
      [
        "ç©",
        "´"
      ],
      [
        "ãģ®ä¸",
        "»"
      ],
      [
        "å¯",
        "§"
      ],
      [
        "ãģ«æ",
        "µ"
      ],
      [
        "ç«",
        "¯"
      ],
      [
        "æīĵ",
        "ãģ¡"
      ],
      [
        "ãĥ´",
        "ãĤ"
      ],
      [
        "ãĤĴ",
        "åĩºãģĹãģ¦"
      ],
      [
        "ãĤĴæ",
        "Ń"
      ],
      [
        "æ°Ĺ",
        "æĮģ"
      ],
      [
        "æľĪ",
        "äºĮåįģ"
      ],
      [
        "çĦ¡",
        "çĲĨ"
      ],
      [
        "å¸°",
        "ãĤĭ"
      ],
      [
        "çµĲ",
        "å©ļ"
      ],
      [
        "ãģ¯",
        "ãģĺ"
      ],
      [
        "ãģ¨",
        "ãģªãģı"
      ],
      [
        "çĶ",
        "£"
      ],
      [
        "æ±",
        "º"
      ],
      [
        "ī",
        "å¿«"
      ],
      [
        "ãĤĴç",
        "µ"
      ],
      [
        "å¹´",
        "ãģ«"
      ],
      [
        "ãģ¼ãĤĵ",
        "ãĤĦãĤĬ"
      ],
      [
        "ãĤĴ",
        "ãģĤ"
      ],
      [
        "ãģĭãĤī",
        "ãģł"
      ],
      [
        "æĿ",
        "Ł"
      ],
      [
        "åį",
        "³"
      ],
      [
        "åĮ",
        "Ĺ"
      ],
      [
        "åģ",
        "µ"
      ],
      [
        "ãģ«ãģĭ",
        "ãģı"
      ],
      [
        "ª",
        "ģ"
      ],
      [
        "åĪ",
        "°"
      ],
      [
        "é£",
        "¯"
      ],
      [
        "è£",
        "ħ"
      ],
      [
        "åĭĿ",
        "æīĭ"
      ],
      [
        "ä»ĬæĹ¥",
        "ãģ¯"
      ],
      [
        "éŁ",
        "¿"
      ],
      [
        "Ĳ",
        "į"
      ],
      [
        "ãĤĵãģł",
        "ãĤĵ"
      ],
      [
        "éł",
        "Ĩ"
      ],
      [
        "è©",
        "°"
      ],
      [
        "ãģ»",
        "ãģ¨"
      ],
      [
        "å¾Į",
        "ãģ«"
      ],
      [
        "åĪĩ",
        "ãģ£ãģ¦"
      ],
      [
        "è",
        "°·"
      ],
      [
        "ãģĹ",
        "ãģĮ"
      ],
      [
        "äº",
        "ī"
      ],
      [
        "ãģĬ",
        "ãĤĦ"
      ],
      [
        "ãĤĦ",
        "ãģı"
      ],
      [
        "ãĤĤãģ®",
        "ãģ¨"
      ],
      [
        "æĪ",
        "¦"
      ],
      [
        "ä»£",
        "ãĤĬ"
      ],
      [
        "åĥķ",
        "ãģĮ"
      ],
      [
        "èĹ",
        "¤"
      ],
      [
        "å°ıãģķ",
        "ãģª"
      ],
      [
        "å¼",
        "ı"
      ],
      [
        "ãģĵãģ¨",
        "ãģ«"
      ],
      [
        "ï¼«",
        "ãģ¯"
      ],
      [
        "ī",
        "²"
      ],
      [
        "ãģ®",
        "ãĤĪ"
      ],
      [
        "ãģ®å",
        "¹"
      ],
      [
        "ãģ®ç",
        "Ł¥"
      ],
      [
        "åį",
        "ļ"
      ],
      [
        "éĬ",
        "Ń"
      ],
      [
        "éľ",
        "²"
      ],
      [
        "ãģĬæ¯į",
        "ãģķãģ¾"
      ],
      [
        "æ±",
        "½è»Ĭ"
      ],
      [
        "ãĤĴèģŀ",
        "ãģĦãģ¦"
      ],
      [
        "§",
        "£"
      ],
      [
        "ãģ¨",
        "è¨Ģ"
      ],
      [
        "ãģł",
        "ãĤĵãģłãĤĵ"
      ],
      [
        "ãģ«ãģª",
        "ãĤĭãģ¨"
      ],
      [
        "äºĶ",
        "åįģ"
      ],
      [
        "åĲĮ",
        "æĻĤãģ«"
      ],
      [
        "ãģĿãģ®å",
        "¤"
      ],
      [
        "ä¸ģ",
        "åº¦"
      ],
      [
        "è©",
        "ķ"
      ],
      [
        "çī©",
        "ãĤĴ"
      ],
      [
        "èħ",
        "°"
      ],
      [
        "éĪ",
        "´"
      ],
      [
        "å",
        "µĲ"
      ],
      [
        "ãģ¨",
        "è¿·äºŃ"
      ],
      [
        "ãģı",
        "ãĤĮãĤĭ"
      ],
      [
        "ä¸ī",
        "æĹ¥"
      ],
      [
        "èĪ",
        "¹"
      ],
      [
        "æŃ¿",
        "ãģĹãģŁ"
      ],
      [
        "°",
        "ãģ¹"
      ],
      [
        "ãģ®æ",
        "Ľ¸"
      ],
      [
        "æĿ",
        "¿"
      ],
      [
        "ãģ«æ",
        "¸"
      ],
      [
        "å¼",
        "Ł"
      ],
      [
        "èĢ",
        "³"
      ],
      [
        "åĬ",
        "ĩ"
      ],
      [
        "ãĤįãģĨ",
        "ãģ¨"
      ],
      [
        "ç¬ĳ",
        "ãģĦ"
      ],
      [
        "æŃ»",
        "ãĤĵãģł"
      ],
      [
        "ä½Ļ",
        "ãĤĬ"
      ],
      [
        "ãĤĴ",
        "åĳ¼"
      ],
      [
        "ãģĻ",
        "ãģ¨"
      ],
      [
        "ä½ķ",
        "ãģ«ãĤĤ"
      ],
      [
        "çĶ·",
        "ãģĮ"
      ],
      [
        "ç¿",
        "Į"
      ],
      [
        "éģĭ",
        "åĭķ"
      ],
      [
        "ç¾İç¦°",
        "åŃĲ"
      ],
      [
        "ãģ",
        "½"
      ],
      [
        "ãģĦ",
        "ãģªãģĭãģ£ãģŁ"
      ],
      [
        "ãģ®å",
        "Į"
      ],
      [
        "å°",
        "½"
      ],
      [
        "éļ",
        "ľ"
      ],
      [
        "å±±",
        "æľ¨"
      ],
      [
        "ãģ®å½",
        "±"
      ],
      [
        "ãģĭãģĪ",
        "ãģ£ãģ¦"
      ],
      [
        "ãģ£",
        "ãģĹãĤĩ"
      ],
      [
        "ãģĿ",
        "ãĤī"
      ],
      [
        "ãģ«ãģª",
        "ãģ£ãģ¦ãģĦãĤĭ"
      ],
      [
        "è¨",
        "±"
      ],
      [
        "éĻ",
        "º"
      ],
      [
        "æĤ",
        "Ł"
      ],
      [
        "ãģªãģ©",
        "ãģ¯"
      ],
      [
        "èµ¤",
        "ãĤ·ãĥ£ãĥĦ"
      ],
      [
        "æ¹",
        "¯"
      ],
      [
        "ãģª",
        "äºĭ"
      ],
      [
        "ãģĹãģŁ",
        "ãģĮ"
      ],
      [
        "éģ",
        "Ĥ"
      ],
      [
        "æŃ",
        "Į"
      ],
      [
        "ãĤĵãģ§",
        "ãģĹãĤĩãģĨ"
      ],
      [
        "ãģ³",
        "ãģ«"
      ],
      [
        "çĪ",
        "º"
      ],
      [
        "æ´",
        "¥"
      ],
      [
        "-",
        "-"
      ],
      [
        "ãģ¾",
        "ãģ£"
      ],
      [
        "åĩ",
        "¡"
      ],
      [
        "å®",
        "Ŀ"
      ],
      [
        "åĽ",
        "²"
      ],
      [
        "å¸",
        "³"
      ],
      [
        "èĢĥ",
        "ãģĪãģŁ"
      ],
      [
        "éĸĢ",
        "éĩİ"
      ],
      [
        "ç´°",
        "åĲĽ"
      ],
      [
        "æĽ",
        "²"
      ],
      [
        "ãģ®åº",
        "ķ"
      ],
      [
        "ãģĭ",
        "ãģ£ãģ¦"
      ],
      [
        "è¦",
        "ĸ"
      ],
      [
        "çĪ¶",
        "ãģķãĤĵ"
      ],
      [
        "è¾¼",
        "ãĤĢ"
      ],
      [
        "æ±Ł",
        "æĪ¸"
      ],
      [
        "çİĦ",
        "éĸ¢"
      ],
      [
        "ãģŁ",
        "ãģĹãģĭ"
      ],
      [
        "ä½",
        "İ"
      ],
      [
        "ãĤı",
        "ãĤĮ"
      ],
      [
        "åĭ",
        "Ļ"
      ],
      [
        "çİ",
        "ī"
      ],
      [
        "ãģĭãĤī",
        "ãģ§ãģĤãĤĭ"
      ],
      [
        "è¦",
        "Ĺ"
      ],
      [
        "å¾",
        "®"
      ],
      [
        "èģ",
        "´"
      ],
      [
        "ç²",
        "¾"
      ],
      [
        "ãģ«åĲĳ",
        "ãģ£ãģ¦"
      ],
      [
        "åħ",
        "ħ"
      ],
      [
        "ãģ¯æ",
        "±"
      ],
      [
        "ãĥĥ",
        "ãģ¨"
      ],
      [
        "åĤ",
        "į"
      ],
      [
        "ãģ®",
        "ãģªãģĭ"
      ],
      [
        "ãĤĴ",
        "é£²"
      ],
      [
        "ãĤĤ",
        "ãģ®ãģ§ãģĻ"
      ],
      [
        "ãĤĬ",
        "ãģ¾ãģĽãĤĵ"
      ],
      [
        "ãģ®ãģ§",
        "ãģ¯"
      ],
      [
        "ãģ¸",
        "åĩº"
      ],
      [
        "æķ",
        "£"
      ],
      [
        "éº",
        "Ĺ"
      ],
      [
        "¬",
        "¡"
      ],
      [
        "ç©",
        "¶"
      ],
      [
        "ç¿",
        "Ĵ"
      ],
      [
        "è¥¿",
        "æ´ĭ"
      ],
      [
        "ãģ®åĤ",
        "į"
      ],
      [
        "ãģĨ",
        "ãĤĵ"
      ],
      [
        "ãģķ",
        "ãģĭ"
      ],
      [
        "äºº",
        "ãģ¨"
      ],
      [
        "ãģ®é",
        "»"
      ],
      [
        "ãģļ",
        "ãģ¤"
      ],
      [
        "åº",
        "µ"
      ],
      [
        "è¨",
        "¼"
      ],
      [
        "ä¼",
        "Ĭ"
      ],
      [
        "æĺİ",
        "æ²»"
      ],
      [
        "çĶ·",
        "ãģ¯"
      ],
      [
        "ãģ®",
        "ãģĵãģ¨"
      ],
      [
        "ãĤĴ",
        "åıĸ"
      ],
      [
        "ä¸ī",
        "éĥİ"
      ],
      [
        "ãģ«ãģª",
        "ãĤĬãģ¾ãģĹãģŁ"
      ],
      [
        "ï¼",
        "¼"
      ],
      [
        "ï¼",
        "ı"
      ],
      [
        "å¹´",
        "ãģ¯"
      ],
      [
        "åĨ",
        "Ļ"
      ],
      [
        "æ¯",
        "Ķ"
      ],
      [
        "å±±",
        "åµĲ"
      ],
      [
        "èº«",
        "ä½ĵ"
      ],
      [
        "ä¸Ī",
        "ãģĳ"
      ],
      [
        "ä¸ĬãģĴ",
        "ãģ¦"
      ],
      [
        "ãģ®ç",
        "Ļ"
      ],
      [
        "å¹",
        "ķ"
      ],
      [
        "å½",
        "¹"
      ],
      [
        "ãĤĴç",
        "Ļº"
      ],
      [
        "èª",
        "ł"
      ],
      [
        "åĽĽ",
        "åįģ"
      ],
      [
        "é¡",
        "ĺ"
      ],
      [
        "æĬ",
        "¼"
      ],
      [
        "æĪĲ",
        "åĸĦ"
      ],
      [
        "èĸ",
        "¬"
      ],
      [
        "çł",
        "´"
      ],
      [
        "ãģĨ",
        "ãģ«"
      ],
      [
        "ãĤĴæ",
        "ı"
      ],
      [
        "æ°Ĺ",
        "ãģª"
      ],
      [
        "éĻ",
        "½"
      ],
      [
        "éĿ¢",
        "çĻ½"
      ],
      [
        "åºĥ",
        "çĶ°"
      ],
      [
        "åħµ",
        "è¡Ľ"
      ],
      [
        "ãģ®çĽ",
        "®"
      ],
      [
        "ãģĮ",
        "ãģĤ"
      ],
      [
        "ãĤĴæ",
        "Ķ"
      ],
      [
        "æ°Ĺ",
        "åĳ³"
      ],
      [
        "æ¸",
        "Ľ"
      ],
      [
        "ãĢħ",
        "ãģ¯"
      ],
      [
        "ãģĭ",
        "ãģĻ"
      ],
      [
        "ãĥ",
        "Ģ"
      ],
      [
        "ãģ®å",
        "¯"
      ],
      [
        "å®",
        "Ĺ"
      ],
      [
        "ãģ¸",
        "éĢĻåħ¥"
      ],
      [
        "åį",
        "Ĺ"
      ],
      [
        "å¸",
        "Ĥ"
      ],
      [
        "ï¼",
        "ģ"
      ],
      [
        "å»",
        "¶"
      ],
      [
        "Ħ",
        "Ľ"
      ],
      [
        "ãģ«",
        "ä¹Ĺ"
      ],
      [
        "ãģ¤",
        "ãģĦãģŁ"
      ],
      [
        "ãģ«æ",
        "Ľ¸"
      ],
      [
        "å¸",
        "¯"
      ],
      [
        "ãģ©ãģĵ",
        "ãģĭ"
      ],
      [
        "ãĥ",
        "ĸ"
      ],
      [
        "ãģ®ç",
        "¥"
      ],
      [
        "éļ",
        "£"
      ],
      [
        "éģł",
        "ãģı"
      ],
      [
        "æį",
        "ķ"
      ],
      [
        "æ²Ļ",
        "å¼¥"
      ],
      [
        "é",
        "Į"
      ],
      [
        "ãĤĴ",
        "éĢļ"
      ],
      [
        "ä½",
        "Ĳ"
      ],
      [
        "çµ¦",
        "ãģĪ"
      ],
      [
        "Ń",
        "ãģĦ"
      ],
      [
        "ä½ķ",
        "æķħ"
      ],
      [
        "å¤§",
        "åŃ¦"
      ],
      [
        "èĢħ",
        "ãģĮ"
      ],
      [
        "æĥ",
        "ĳ"
      ],
      [
        "æĽ",
        "´"
      ],
      [
        "ï¼ı",
        "ï¼¼"
      ],
      [
        "Ķ",
        "ç©¶"
      ],
      [
        "ãģ¨",
        "ãģ«ãģĭãģı"
      ],
      [
        "åį",
        "±"
      ],
      [
        "éĢ",
        "Ĩ"
      ],
      [
        "æĻĤ",
        "ä»£"
      ],
      [
        "èģŀ",
        "ãģı"
      ],
      [
        "å±ĭ",
        "æķ·"
      ],
      [
        "è²",
        "ł"
      ],
      [
        "é¨",
        "Ĵ"
      ],
      [
        "ãĥ",
        "Ļ"
      ],
      [
        "ãĤı",
        "ãģļ"
      ],
      [
        "çĪ",
        "µ"
      ],
      [
        "çķ",
        "³"
      ],
      [
        "ãĥª",
        "ãĥ³"
      ],
      [
        "èª°",
        "ãĤĤ"
      ],
      [
        "ãģ«éĢ",
        "¢"
      ],
      [
        "å¿ĺ",
        "ãĤĮãģ¦"
      ],
      [
        "ãģ¾",
        "ãģ§ãģ¯"
      ],
      [
        "æĿ¥",
        "ãģªãģĦ"
      ],
      [
        "ãĤĴè¦ĭ",
        "ãĤĭ"
      ],
      [
        "ãģĿãģ®å",
        "¾"
      ],
      [
        "ç¢",
        "º"
      ],
      [
        "ç§",
        "ĭ"
      ],
      [
        "çĶŁ",
        "å¾Ĵ"
      ],
      [
        "å¯",
        "Ĩ"
      ],
      [
        "åĳ",
        "¨"
      ],
      [
        "ãģĲ",
        "ãĤĭ"
      ],
      [
        "é«ĺ",
        "ãģĦ"
      ],
      [
        "ãģ®",
        "äººéĸĵ"
      ],
      [
        "ãģĻ",
        "ãģ¹ãģį"
      ],
      [
        "æĿ",
        "¯"
      ],
      [
        "å¤§",
        "ä¸Īå¤«"
      ],
      [
        "ãĢħ",
        "ãģ¨"
      ],
      [
        "å²",
        "¸"
      ],
      [
        "ç",
        "°"
      ],
      [
        "äº",
        "Ĵ"
      ],
      [
        "æĮģ",
        "ãģ£ãģ¦"
      ],
      [
        "äº",
        "Ĩ"
      ],
      [
        "åĲ",
        "¸"
      ],
      [
        "ãģ®ãģ§",
        "ãģĹãĤĩãģĨ"
      ],
      [
        "äºĳ",
        "ãģĨãģ¨"
      ],
      [
        "æĦ",
        "īå¿«"
      ],
      [
        "ãģ«çĽ¸",
        "éģķãģªãģĦ"
      ],
      [
        "ãģĭ",
        "ãģĹãģ¦"
      ],
      [
        "ãģĭãĤī",
        "ãģ¯"
      ],
      [
        "ãģķ",
        "ãģĽãĤĭ"
      ],
      [
        "ãĤı",
        "ãĤĮãĤĭ"
      ],
      [
        "ãģ§ãģ¯",
        "ãģªãģĭãģ£ãģŁ"
      ],
      [
        "ãģ¹",
        "ãģı"
      ],
      [
        "ãģĦãĤį",
        "ãģĦãĤį"
      ],
      [
        "ãģ»ãģ¨",
        "ãĤĵãģ©"
      ],
      [
        "°",
        "ãĤĬè¿Ķ"
      ],
      [
        "ãģ¤",
        "ãģĳãģ¦"
      ],
      [
        "ç§",
        "ĺ"
      ],
      [
        "ä¸Ģ",
        "ä½ĵ"
      ],
      [
        "èĩª",
        "å·±"
      ],
      [
        "èĩªåĪĨ",
        "ãģ§"
      ],
      [
        "æīĢ",
        "ãģ§"
      ],
      [
        "ãģ¶",
        "ãĤī"
      ],
      [
        "ãģ«",
        "å¾ĵ"
      ],
      [
        "ãģı",
        "ãģªãĤĭ"
      ],
      [
        "ä»",
        "ĭ"
      ],
      [
        "ãĤĵãģł",
        "ãģĮ"
      ],
      [
        "ä¿",
        "®"
      ],
      [
        "åĽ°",
        "ãĤĭ"
      ],
      [
        "å´",
        "İ"
      ],
      [
        "ãĤ",
        "±"
      ],
      [
        "ãģ®",
        "äºĮ"
      ],
      [
        "ãĤĴ",
        "ãģĹ"
      ],
      [
        "ãģĨ",
        "ãģ©"
      ],
      [
        "ãģ£ãģŁ",
        "ãĤī"
      ],
      [
        "å®",
        "ľ"
      ],
      [
        "ãģ«ç",
        "½®"
      ],
      [
        "ä¸ĭ",
        "å®¿"
      ],
      [
        "ãģ§ãģĤãģ£ãģŁ",
        "ãģĮ"
      ],
      [
        "æļ",
        "´"
      ],
      [
        "å¼µ",
        "ãĤĬ"
      ],
      [
        "³",
        "¨"
      ],
      [
        "ãģ®æ",
        "Ĥª"
      ],
      [
        "äºº",
        "ãģ®"
      ],
      [
        "åį",
        "Ī"
      ],
      [
        "äºĳ",
        "ãģµ"
      ],
      [
        "ãģĺ",
        "ãģ£ãģ¨"
      ],
      [
        "åŃĲ",
        "ãģ§"
      ],
      [
        "åŀ",
        "£"
      ],
      [
        "ãĥ",
        "Ĵ"
      ],
      [
        "ãģ®æ",
        "ķĻ"
      ],
      [
        "ç§",
        "ĳ"
      ],
      [
        "ãģĬ",
        "ãģĦ"
      ],
      [
        "äºĳ",
        "ãģ£ãģ¦"
      ],
      [
        "æĹ",
        "¢"
      ],
      [
        "ãģ®",
        "ãĤĤãģ®"
      ],
      [
        "ä½ķ",
        "æĻĤ"
      ],
      [
        "çĶŁ",
        "ãĤĮãģŁ"
      ],
      [
        "ãģ«æ",
        "Ī"
      ],
      [
[...]
